{
  "special_tokens": {
    "<PAD>": 0,
    "<UNK>": 1,
    "<BOS>": 2,
    "<EOS>": 3
  },
  "merges": [
    [
      "<",
      "/"
    ],
    [
      "</",
      "w"
    ],
    [
      "</w",
      ">"
    ],
    [
      "e",
      "</w>"
    ],
    [
      "d",
      "</w>"
    ],
    [
      "t",
      "h"
    ],
    [
      ".",
      "</w>"
    ],
    [
      "t",
      "</w>"
    ],
    [
      "a",
      "n"
    ],
    [
      "s",
      "</w>"
    ],
    [
      "y",
      "</w>"
    ],
    [
      "e",
      "r"
    ],
    [
      "o",
      "</w>"
    ],
    [
      "e",
      "d</w>"
    ],
    [
      "an",
      "d</w>"
    ],
    [
      "i",
      "n"
    ],
    [
      "th",
      "e</w>"
    ],
    [
      ",",
      "</w>"
    ],
    [
      "h",
      "e</w>"
    ],
    [
      "e",
      "n"
    ],
    [
      "w",
      "a"
    ],
    [
      "o",
      "u"
    ],
    [
      "a",
      "</w>"
    ],
    [
      "t",
      "o</w>"
    ],
    [
      "a",
      "r"
    ],
    [
      "wa",
      "s</w>"
    ],
    [
      "er",
      "</w>"
    ],
    [
      "o",
      "n"
    ],
    [
      "g",
      "</w>"
    ],
    [
      "o",
      "m"
    ],
    [
      "h",
      "a"
    ],
    [
      "l",
      "</w>"
    ],
    [
      "o",
      "r"
    ],
    [
      "s",
      "a"
    ],
    [
      "h",
      "e"
    ],
    [
      "i",
      "l"
    ],
    [
      "in",
      "g</w>"
    ],
    [
      "l",
      "i"
    ],
    [
      "i",
      "m"
    ],
    [
      "r",
      "e"
    ],
    [
      "l",
      "o"
    ],
    [
      "o",
      "f"
    ],
    [
      "s",
      "t"
    ],
    [
      "i",
      "s</w>"
    ],
    [
      "i",
      "d"
    ],
    [
      "e",
      ".</w>"
    ],
    [
      "a",
      "l"
    ],
    [
      "H",
      "e</w>"
    ],
    [
      "th",
      "e"
    ],
    [
      "i",
      "r"
    ],
    [
      "l",
      "a"
    ],
    [
      "S",
      "he</w>"
    ],
    [
      "w",
      "</w>"
    ],
    [
      "i",
      "t</w>"
    ],
    [
      "k",
      "</w>"
    ],
    [
      "\"",
      "</w>"
    ],
    [
      "en",
      "</w>"
    ],
    [
      "a",
      "t</w>"
    ],
    [
      "s",
      ".</w>"
    ],
    [
      "T",
      "he"
    ],
    [
      "h",
      "er</w>"
    ],
    [
      "y",
      ".</w>"
    ],
    [
      "The",
      "y</w>"
    ],
    [
      "T",
      "he</w>"
    ],
    [
      "en",
      "d"
    ],
    [
      "i",
      "t"
    ],
    [
      "on",
      "</w>"
    ],
    [
      "in",
      "</w>"
    ],
    [
      "r",
      "i"
    ],
    [
      "e",
      "x"
    ],
    [
      "er",
      "e</w>"
    ],
    [
      "t",
      "o"
    ],
    [
      "d",
      ".</w>"
    ],
    [
      "th",
      "</w>"
    ],
    [
      "w",
      "i"
    ],
    [
      "d",
      "a"
    ],
    [
      "v",
      "er"
    ],
    [
      "a",
      "m"
    ],
    [
      "a",
      "c"
    ],
    [
      "s",
      "he</w>"
    ],
    [
      "y",
      ",</w>"
    ],
    [
      "om",
      "</w>"
    ],
    [
      "p",
      "p"
    ],
    [
      "b",
      "e"
    ],
    [
      "t",
      "t"
    ],
    [
      "l",
      "e</w>"
    ],
    [
      "an",
      "</w>"
    ],
    [
      "s",
      "h"
    ],
    [
      "n",
      "o"
    ],
    [
      "u",
      "n"
    ],
    [
      "O",
      "n"
    ],
    [
      "wi",
      "th</w>"
    ],
    [
      "e",
      "l"
    ],
    [
      "k",
      "ed</w>"
    ],
    [
      "h",
      "is</w>"
    ],
    [
      "u",
      "t</w>"
    ],
    [
      "s",
      "o</w>"
    ],
    [
      "g",
      "h"
    ],
    [
      "p",
      "la"
    ],
    [
      "l",
      "d</w>"
    ],
    [
      "l",
      "e"
    ],
    [
      "f",
      "or"
    ],
    [
      "u",
      "p"
    ],
    [
      "of",
      "</w>"
    ],
    [
      "i",
      "c"
    ],
    [
      "y",
      "ou"
    ],
    [
      "v",
      "e</w>"
    ],
    [
      "ha",
      "d</w>"
    ],
    [
      "k",
      "e</w>"
    ],
    [
      "c",
      "h"
    ],
    [
      "b",
      "o"
    ],
    [
      "ver",
      "y</w>"
    ],
    [
      "t",
      "ed</w>"
    ],
    [
      "L",
      "il"
    ],
    [
      "e",
      ",</w>"
    ],
    [
      "th",
      "at</w>"
    ],
    [
      "r",
      "o"
    ],
    [
      "n",
      "e"
    ],
    [
      "of",
      "t"
    ],
    [
      "ex",
      "t"
    ],
    [
      "the",
      "y</w>"
    ],
    [
      "ha",
      "pp"
    ],
    [
      "<",
      "|"
    ],
    [
      "<|",
      "end"
    ],
    [
      "<|end",
      "oft"
    ],
    [
      "<|endoft",
      "ext"
    ],
    [
      "<|endoftext",
      "|"
    ],
    [
      "<|endoftext|",
      ">"
    ],
    [
      "<|endoftext|>",
      "</w>"
    ],
    [
      "s",
      "e"
    ],
    [
      "ou",
      "n"
    ],
    [
      "sa",
      "id"
    ],
    [
      "w",
      "an"
    ],
    [
      "m",
      "a"
    ],
    [
      "in",
      "g"
    ],
    [
      "w",
      "h"
    ],
    [
      "r",
      "a"
    ],
    [
      "d",
      "o"
    ],
    [
      "t",
      "im"
    ],
    [
      "for",
      "</w>"
    ],
    [
      "!",
      "</w>"
    ],
    [
      "tt",
      "le</w>"
    ],
    [
      "li",
      "ttle</w>"
    ],
    [
      "'",
      "s</w>"
    ],
    [
      "c",
      "e</w>"
    ],
    [
      "b",
      "i"
    ],
    [
      "s",
      "m"
    ],
    [
      "l",
      "y</w>"
    ],
    [
      "er",
      ".</w>"
    ],
    [
      "e",
      "s</w>"
    ],
    [
      "I",
      "t</w>"
    ],
    [
      "ou",
      "ld</w>"
    ],
    [
      "c",
      "ar"
    ],
    [
      "i",
      "d</w>"
    ],
    [
      "o",
      "o"
    ],
    [
      "al",
      "l</w>"
    ],
    [
      "f",
      "ri"
    ],
    [
      "m",
      "y</w>"
    ],
    [
      "a",
      "s"
    ],
    [
      "th",
      "ere</w>"
    ],
    [
      "da",
      "y,</w>"
    ],
    [
      "s",
      "om"
    ],
    [
      "t",
      ".</w>"
    ],
    [
      "u",
      "r"
    ],
    [
      "m",
      "</w>"
    ],
    [
      "lo",
      "o"
    ],
    [
      "said",
      ",</w>"
    ],
    [
      "g",
      "e"
    ],
    [
      "sa",
      "w</w>"
    ],
    [
      "Lil",
      "y</w>"
    ],
    [
      "im",
      "</w>"
    ],
    [
      "I",
      "</w>"
    ],
    [
      "fri",
      "end"
    ],
    [
      "On",
      "e</w>"
    ],
    [
      "en",
      "t</w>"
    ],
    [
      "w",
      "ere</w>"
    ],
    [
      "bi",
      "g</w>"
    ],
    [
      "On",
      "ce</w>"
    ],
    [
      "s",
      "p"
    ],
    [
      ".",
      "\"</w>"
    ],
    [
      "oun",
      "d</w>"
    ],
    [
      "e",
      "c"
    ],
    [
      "f",
      "u"
    ],
    [
      "p",
      "</w>"
    ],
    [
      "no",
      "t</w>"
    ],
    [
      "you",
      "</w>"
    ],
    [
      "g",
      "ir"
    ],
    [
      "e",
      "d.</w>"
    ],
    [
      "s",
      ",</w>"
    ],
    [
      "wan",
      "ted</w>"
    ],
    [
      "s",
      "t</w>"
    ],
    [
      "v",
      "ed</w>"
    ],
    [
      "ar",
      "e</w>"
    ],
    [
      "'",
      "t</w>"
    ],
    [
      "b",
      "ut</w>"
    ],
    [
      "ir",
      "</w>"
    ],
    [
      "up",
      "on</w>"
    ],
    [
      "s",
      "e</w>"
    ],
    [
      "sm",
      "il"
    ],
    [
      "a",
      "t"
    ],
    [
      "gir",
      "l</w>"
    ],
    [
      "o",
      "l"
    ],
    [
      "pla",
      "y</w>"
    ],
    [
      "!",
      "\"</w>"
    ],
    [
      "d",
      ",</w>"
    ],
    [
      "ou",
      "t</w>"
    ],
    [
      "b",
      "e</w>"
    ],
    [
      "t",
      "a"
    ],
    [
      "on",
      "e</w>"
    ],
    [
      "ac",
      "k</w>"
    ],
    [
      "n",
      "</w>"
    ],
    [
      "k",
      ".</w>"
    ],
    [
      "m",
      "om</w>"
    ],
    [
      "gh",
      "t</w>"
    ],
    [
      "happ",
      "y</w>"
    ],
    [
      "g",
      "a"
    ],
    [
      "sa",
      "id</w>"
    ],
    [
      "the",
      "ir</w>"
    ],
    [
      "he",
      "l"
    ],
    [
      "ha",
      "ve</w>"
    ],
    [
      "w",
      "ent</w>"
    ],
    [
      "e",
      "e"
    ],
    [
      "t",
      "i"
    ],
    [
      "v",
      "er</w>"
    ],
    [
      "pla",
      "y"
    ],
    [
      "up",
      "</w>"
    ],
    [
      "ha",
      "t</w>"
    ],
    [
      "th",
      "ing</w>"
    ],
    [
      "d",
      "d"
    ],
    [
      "tim",
      "e,</w>"
    ],
    [
      "g",
      "o"
    ],
    [
      "f",
      "el"
    ],
    [
      "som",
      "e"
    ],
    [
      "f",
      "un"
    ],
    [
      "n",
      "am"
    ],
    [
      "th",
      "er</w>"
    ],
    [
      "ch",
      "</w>"
    ],
    [
      "ne",
      "w</w>"
    ],
    [
      "B",
      "ut</w>"
    ],
    [
      "b",
      "u"
    ],
    [
      "h",
      "o"
    ],
    [
      "it",
      ".</w>"
    ],
    [
      "i",
      "s"
    ],
    [
      "r",
      "om</w>"
    ],
    [
      "s",
      "id"
    ],
    [
      "B",
      "en</w>"
    ],
    [
      "to",
      "o"
    ],
    [
      "g",
      "o</w>"
    ],
    [
      "st",
      "ar"
    ],
    [
      "c",
      "a"
    ],
    [
      "m",
      "e"
    ],
    [
      "loo",
      "ked</w>"
    ],
    [
      "p",
      "ar"
    ],
    [
      "li",
      "ke</w>"
    ],
    [
      "l",
      ".</w>"
    ],
    [
      "da",
      "y</w>"
    ],
    [
      "A",
      "n"
    ],
    [
      "h",
      "im</w>"
    ],
    [
      "f",
      "</w>"
    ],
    [
      "n",
      "'t</w>"
    ],
    [
      "T",
      "im"
    ],
    [
      "fel",
      "t</w>"
    ],
    [
      "fu",
      "l</w>"
    ],
    [
      "u",
      "m"
    ],
    [
      "ar",
      "</w>"
    ],
    [
      "a",
      "b"
    ],
    [
      "w",
      "ould</w>"
    ],
    [
      "the",
      "m</w>"
    ],
    [
      "in",
      "d</w>"
    ],
    [
      "k",
      "e"
    ],
    [
      "b",
      "ir"
    ],
    [
      "d",
      "e</w>"
    ],
    [
      "?",
      "\"</w>"
    ],
    [
      "y",
      "s</w>"
    ],
    [
      "l",
      "ed</w>"
    ],
    [
      "t",
      "s</w>"
    ],
    [
      "o",
      "p"
    ],
    [
      "Y",
      "ou"
    ],
    [
      "u",
      "c"
    ],
    [
      "c",
      "an</w>"
    ],
    [
      "nam",
      "ed</w>"
    ],
    [
      "t",
      "er</w>"
    ],
    [
      "c",
      "ould</w>"
    ],
    [
      "a",
      "l</w>"
    ],
    [
      "lo",
      "ved</w>"
    ],
    [
      "m",
      "u"
    ],
    [
      "m",
      "or"
    ],
    [
      "a",
      "wa"
    ],
    [
      "bo",
      "y</w>"
    ],
    [
      "il",
      "l</w>"
    ],
    [
      "ing",
      ".</w>"
    ],
    [
      "w",
      "or"
    ],
    [
      "h",
      "</w>"
    ],
    [
      "ex",
      "c"
    ],
    [
      "t",
      "'s</w>"
    ],
    [
      "b",
      "ack</w>"
    ],
    [
      "lo",
      "w"
    ],
    [
      "a",
      "d"
    ],
    [
      "c",
      "om"
    ],
    [
      "exc",
      "it"
    ],
    [
      "some",
      "thing</w>"
    ],
    [
      "m",
      "om"
    ],
    [
      "f",
      "i"
    ],
    [
      "ar",
      "ound</w>"
    ],
    [
      "r",
      "y</w>"
    ],
    [
      "T",
      "om</w>"
    ],
    [
      "u",
      "g"
    ],
    [
      "You",
      "</w>"
    ],
    [
      "am",
      "e</w>"
    ],
    [
      "star",
      "ted</w>"
    ],
    [
      "r",
      "ou"
    ],
    [
      "T",
      "h"
    ],
    [
      "W",
      "h"
    ],
    [
      ",",
      "\"</w>"
    ],
    [
      "to",
      "ge"
    ],
    [
      "r",
      "</w>"
    ],
    [
      "ver",
      "y"
    ],
    [
      "en",
      "t"
    ],
    [
      "ma",
      "de</w>"
    ],
    [
      "t",
      "re"
    ],
    [
      "S",
      "u"
    ],
    [
      "ma",
      "ke</w>"
    ],
    [
      "r",
      "an</w>"
    ],
    [
      "h",
      "om"
    ],
    [
      "tim",
      "e</w>"
    ],
    [
      "wa",
      "l"
    ],
    [
      "som",
      "e</w>"
    ],
    [
      "se",
      "e</w>"
    ],
    [
      "smil",
      "ed</w>"
    ],
    [
      "o",
      "w"
    ],
    [
      "w",
      "hat</w>"
    ],
    [
      "k",
      "ing</w>"
    ],
    [
      "a",
      "ga"
    ],
    [
      "sa",
      "y"
    ],
    [
      "d",
      "ec"
    ],
    [
      "c",
      "ame</w>"
    ],
    [
      "p",
      "e"
    ],
    [
      "an",
      "d"
    ],
    [
      "f",
      "ound</w>"
    ],
    [
      "T",
      "im</w>"
    ],
    [
      "f",
      "rom</w>"
    ],
    [
      "in",
      ".</w>"
    ],
    [
      "ou",
      "t"
    ],
    [
      "dec",
      "id"
    ],
    [
      "g",
      "oo"
    ],
    [
      "wh",
      "en</w>"
    ],
    [
      "p",
      "ut</w>"
    ],
    [
      "do",
      "w"
    ],
    [
      "q",
      "u"
    ],
    [
      "an",
      "g"
    ],
    [
      "sp",
      "ec"
    ],
    [
      "go",
      "t</w>"
    ],
    [
      "pp",
      "ed</w>"
    ],
    [
      "th",
      "ing"
    ],
    [
      "decid",
      "ed</w>"
    ],
    [
      "b",
      "b"
    ],
    [
      "x",
      "</w>"
    ],
    [
      "S",
      "ar"
    ],
    [
      "as",
      "ked</w>"
    ],
    [
      "s",
      "car"
    ],
    [
      "d",
      "id</w>"
    ],
    [
      "li",
      "ked</w>"
    ],
    [
      "h",
      "im"
    ],
    [
      "wh",
      "o</w>"
    ],
    [
      "spec",
      "i"
    ],
    [
      "wan",
      "t</w>"
    ],
    [
      "happ",
      "y.</w>"
    ],
    [
      "l",
      "y,</w>"
    ],
    [
      "p",
      "l"
    ],
    [
      "ar",
      "d</w>"
    ],
    [
      "o",
      "ther</w>"
    ],
    [
      "en",
      ".</w>"
    ],
    [
      "e",
      "s.</w>"
    ],
    [
      "wa",
      "t"
    ],
    [
      "am",
      "</w>"
    ],
    [
      "friend",
      "s</w>"
    ],
    [
      "o",
      "ld</w>"
    ],
    [
      "e",
      "a"
    ],
    [
      "p",
      "ic"
    ],
    [
      "sid",
      "e</w>"
    ],
    [
      "hel",
      "p</w>"
    ],
    [
      "p",
      "a"
    ],
    [
      "th",
      "er"
    ],
    [
      "d",
      "i"
    ],
    [
      "p",
      "o"
    ],
    [
      "th",
      "ou"
    ],
    [
      "play",
      "ing</w>"
    ],
    [
      "h",
      "ug"
    ],
    [
      "sh",
      "</w>"
    ],
    [
      "a",
      "s</w>"
    ],
    [
      "said",
      ".</w>"
    ],
    [
      "m",
      "an"
    ],
    [
      "th",
      "er.</w>"
    ],
    [
      "k",
      "s</w>"
    ],
    [
      "l",
      "l</w>"
    ],
    [
      "th",
      "en</w>"
    ],
    [
      "or",
      "</w>"
    ],
    [
      "c",
      "ou"
    ],
    [
      "m",
      "o"
    ],
    [
      "i",
      "gh"
    ],
    [
      "e",
      "ac"
    ],
    [
      "J",
      "o"
    ],
    [
      "u",
      "gh"
    ],
    [
      "M",
      "a"
    ],
    [
      "l",
      "on"
    ],
    [
      "f",
      "e"
    ],
    [
      "too",
      "k</w>"
    ],
    [
      "g",
      "re"
    ],
    [
      "An",
      "n"
    ],
    [
      "p",
      "u"
    ],
    [
      "ta",
      "ke</w>"
    ],
    [
      "r",
      "u"
    ],
    [
      "k",
      "no"
    ],
    [
      "s",
      "k"
    ],
    [
      "Tim",
      "my</w>"
    ],
    [
      "ge",
      "t</w>"
    ],
    [
      "d",
      "e"
    ],
    [
      "j",
      "o"
    ],
    [
      "bir",
      "d</w>"
    ],
    [
      "friend",
      "s.</w>"
    ],
    [
      "f",
      "a"
    ],
    [
      "wa",
      "ys</w>"
    ],
    [
      "Wh",
      "en</w>"
    ],
    [
      "m",
      "b"
    ],
    [
      "e",
      "d,</w>"
    ],
    [
      "w",
      "e</w>"
    ],
    [
      "on",
      ",</w>"
    ],
    [
      "p",
      "re"
    ],
    [
      "c",
      "lo"
    ],
    [
      "th",
      "an"
    ],
    [
      "ic",
      "e</w>"
    ],
    [
      "ab",
      "out</w>"
    ],
    [
      "d",
      "id"
    ],
    [
      "s",
      "w"
    ],
    [
      "fun",
      "</w>"
    ],
    [
      "m",
      ".</w>"
    ],
    [
      "you",
      "r</w>"
    ],
    [
      "m",
      "an</w>"
    ],
    [
      "al",
      "ways</w>"
    ],
    [
      "g",
      "r"
    ],
    [
      "b",
      "l"
    ],
    [
      "h",
      "ou"
    ],
    [
      "j",
      "u"
    ],
    [
      "hel",
      "p"
    ],
    [
      "to",
      "o</w>"
    ],
    [
      "y",
      "'s</w>"
    ],
    [
      "en",
      ",</w>"
    ],
    [
      "r",
      "un"
    ],
    [
      "b",
      "a"
    ],
    [
      "om",
      ".</w>"
    ],
    [
      "g",
      ".</w>"
    ],
    [
      "u",
      "re"
    ],
    [
      "g",
      "i"
    ],
    [
      "st",
      "r"
    ],
    [
      "s",
      "ur"
    ],
    [
      "en",
      "d</w>"
    ],
    [
      "s",
      "ed</w>"
    ],
    [
      "e",
      "d"
    ],
    [
      "thou",
      "ght</w>"
    ],
    [
      "s",
      "s</w>"
    ],
    [
      "g",
      "ra"
    ],
    [
      "f",
      "ind</w>"
    ],
    [
      "u",
      "se</w>"
    ],
    [
      "speci",
      "al</w>"
    ],
    [
      "al",
      "ly</w>"
    ],
    [
      "s",
      "un"
    ],
    [
      "re",
      "a"
    ],
    [
      "o",
      ",</w>"
    ],
    [
      "s",
      "i"
    ],
    [
      "dd",
      "en"
    ],
    [
      "l",
      "d"
    ],
    [
      "t",
      "ri"
    ],
    [
      "s",
      "e.</w>"
    ],
    [
      "e",
      "very"
    ],
    [
      "d",
      "er"
    ],
    [
      "\"",
      "W"
    ],
    [
      "le",
      "ar"
    ],
    [
      "d",
      "o</w>"
    ],
    [
      "s",
      "or"
    ],
    [
      "g",
      "ed</w>"
    ],
    [
      "c",
      "o"
    ],
    [
      "e",
      "s,</w>"
    ],
    [
      "la",
      "ugh"
    ],
    [
      "eac",
      "h</w>"
    ],
    [
      "aga",
      "in.</w>"
    ],
    [
      "e",
      "ar"
    ],
    [
      "n",
      "ed</w>"
    ],
    [
      "\"",
      "I</w>"
    ],
    [
      "c",
      "re"
    ],
    [
      "L",
      "e"
    ],
    [
      "car",
      "e"
    ],
    [
      "did",
      "n't</w>"
    ],
    [
      "on",
      "'t</w>"
    ],
    [
      "p",
      "rou"
    ],
    [
      "k",
      "new</w>"
    ],
    [
      "in",
      "to</w>"
    ],
    [
      "c",
      "ol"
    ],
    [
      "b",
      "al"
    ],
    [
      "v",
      "ent"
    ],
    [
      "ho",
      "w</w>"
    ],
    [
      "mor",
      "e</w>"
    ],
    [
      "M",
      "om"
    ],
    [
      "on",
      ".</w>"
    ],
    [
      "d",
      "s</w>"
    ],
    [
      "f",
      "ter</w>"
    ],
    [
      "him",
      ".</w>"
    ],
    [
      "ga",
      "ve</w>"
    ],
    [
      "wa",
      "r"
    ],
    [
      "n",
      "y</w>"
    ],
    [
      "excit",
      "ed</w>"
    ],
    [
      "ld",
      "n't</w>"
    ],
    [
      "say",
      "s.</w>"
    ],
    [
      "ne",
      "ver</w>"
    ],
    [
      "s",
      "o"
    ],
    [
      "it",
      "e</w>"
    ],
    [
      "H",
      "er</w>"
    ],
    [
      "ar",
      "d"
    ],
    [
      "J",
      "ack</w>"
    ],
    [
      "l",
      "ou"
    ],
    [
      "D",
      "a"
    ],
    [
      "Su",
      "dden"
    ],
    [
      "to",
      "ld</w>"
    ],
    [
      "goo",
      "d</w>"
    ],
    [
      "c",
      "he"
    ],
    [
      "b",
      "ro"
    ],
    [
      "s",
      "el"
    ],
    [
      "dow",
      "n</w>"
    ],
    [
      "t",
      "w"
    ],
    [
      "w",
      "ill</w>"
    ],
    [
      "f",
      "low"
    ],
    [
      "sh",
      "in"
    ],
    [
      "c",
      "al"
    ],
    [
      "h",
      "er.</w>"
    ],
    [
      "M",
      "i"
    ],
    [
      "st",
      "or"
    ],
    [
      "r",
      "y.</w>"
    ],
    [
      "thing",
      "s</w>"
    ],
    [
      "d",
      "re"
    ],
    [
      "c",
      "u"
    ],
    [
      "Ann",
      "a</w>"
    ],
    [
      "than",
      "ked</w>"
    ],
    [
      "man",
      "y</w>"
    ],
    [
      "le",
      "a"
    ],
    [
      "k",
      ",</w>"
    ],
    [
      "m",
      "e</w>"
    ],
    [
      "v",
      "en</w>"
    ],
    [
      "t",
      ",</w>"
    ],
    [
      "cou",
      "ldn't</w>"
    ],
    [
      "st",
      "a"
    ],
    [
      "ex",
      "pl"
    ],
    [
      "expl",
      "or"
    ],
    [
      "f",
      "f"
    ],
    [
      "play",
      "ed</w>"
    ],
    [
      "awa",
      "y</w>"
    ],
    [
      "sm",
      "all</w>"
    ],
    [
      "be",
      "a"
    ],
    [
      "awa",
      "y.</w>"
    ],
    [
      "da",
      "y.</w>"
    ],
    [
      "bi",
      "g"
    ],
    [
      "ju",
      "st</w>"
    ],
    [
      "mu",
      "ch</w>"
    ],
    [
      "g",
      "ard"
    ],
    [
      "the",
      "m.</w>"
    ],
    [
      "f",
      "ee"
    ],
    [
      "ti",
      "l</w>"
    ],
    [
      "An",
      "d</w>"
    ],
    [
      "ic",
      "k"
    ],
    [
      "i",
      "f</w>"
    ],
    [
      "ou",
      "s</w>"
    ],
    [
      "fun",
      ".</w>"
    ],
    [
      "F",
      "rom</w>"
    ],
    [
      "l",
      "y.</w>"
    ],
    [
      "t",
      "r"
    ],
    [
      "v",
      "ing</w>"
    ],
    [
      "an",
      "y"
    ],
    [
      "un",
      "til</w>"
    ],
    [
      "f",
      "in"
    ],
    [
      "oun",
      "d.</w>"
    ],
    [
      "b",
      "</w>"
    ],
    [
      "u",
      "ti"
    ],
    [
      "Sudden",
      "ly,</w>"
    ],
    [
      "prou",
      "d</w>"
    ],
    [
      "st",
      ".</w>"
    ],
    [
      "Lil",
      "y.</w>"
    ],
    [
      "hug",
      "ged</w>"
    ],
    [
      "t",
      "ur"
    ],
    [
      "th",
      "is</w>"
    ],
    [
      "b",
      "ra"
    ],
    [
      "fe",
      "el"
    ],
    [
      "H",
      "is</w>"
    ],
    [
      "L",
      "uc"
    ],
    [
      "Sar",
      "a</w>"
    ],
    [
      "en",
      "ed</w>"
    ],
    [
      "M",
      "om</w>"
    ],
    [
      "he",
      "ard</w>"
    ],
    [
      "bea",
      "uti"
    ],
    [
      "o",
      "ver</w>"
    ],
    [
      "toge",
      "ther</w>"
    ],
    [
      "S",
      "am</w>"
    ],
    [
      "lo",
      "ts</w>"
    ],
    [
      "il",
      "y</w>"
    ],
    [
      "S",
      "o</w>"
    ],
    [
      "sh",
      "ed</w>"
    ],
    [
      "loo",
      "k</w>"
    ],
    [
      "r",
      "ed</w>"
    ],
    [
      "I",
      "'"
    ],
    [
      "l",
      "e.</w>"
    ],
    [
      "toge",
      "ther.</w>"
    ],
    [
      "do",
      "g</w>"
    ],
    [
      "gh",
      "</w>"
    ],
    [
      "c",
      "k</w>"
    ],
    [
      "c",
      "le"
    ],
    [
      "sid",
      "e.</w>"
    ],
    [
      "an",
      "t</w>"
    ],
    [
      "be",
      "ca"
    ],
    [
      "beca",
      "use</w>"
    ],
    [
      "be",
      "tt"
    ],
    [
      "le",
      "w</w>"
    ],
    [
      "ad",
      "vent"
    ],
    [
      "s",
      "u"
    ],
    [
      "be",
      "st</w>"
    ],
    [
      "kno",
      "w</w>"
    ],
    [
      "da",
      "d</w>"
    ],
    [
      "com",
      "e</w>"
    ],
    [
      "p",
      ".</w>"
    ],
    [
      "ch",
      "ed</w>"
    ],
    [
      "Jo",
      "h"
    ],
    [
      "sa",
      "d</w>"
    ],
    [
      "an",
      "im"
    ],
    [
      "p",
      "t</w>"
    ],
    [
      "tri",
      "ed</w>"
    ],
    [
      "k",
      "es</w>"
    ],
    [
      "it",
      "s</w>"
    ],
    [
      "ee",
      "p</w>"
    ],
    [
      "ing",
      ",</w>"
    ],
    [
      "r",
      "ac"
    ],
    [
      "fee",
      "l</w>"
    ],
    [
      "it",
      "t"
    ],
    [
      "\"",
      "H"
    ],
    [
      "Le",
      "t's</w>"
    ],
    [
      "hom",
      "e.</w>"
    ],
    [
      "par",
      "k.</w>"
    ],
    [
      "y",
      "!</w>"
    ],
    [
      "E",
      "very"
    ],
    [
      "j",
      "um"
    ],
    [
      "er",
      "s</w>"
    ],
    [
      "b",
      "ac"
    ],
    [
      "Sar",
      "a"
    ],
    [
      "to",
      "y</w>"
    ],
    [
      "p",
      "ri"
    ],
    [
      "an",
      "k</w>"
    ],
    [
      "sh",
      "o"
    ],
    [
      "li",
      "ved</w>"
    ],
    [
      "cal",
      "led</w>"
    ],
    [
      "er",
      ",</w>"
    ],
    [
      "t",
      "e"
    ],
    [
      "b",
      "y</w>"
    ],
    [
      "v",
      "e"
    ],
    [
      "f",
      "am"
    ],
    [
      "out",
      "side</w>"
    ],
    [
      "p",
      "ed</w>"
    ],
    [
      "w",
      ".</w>"
    ],
    [
      "w",
      "e"
    ],
    [
      "g",
      "e</w>"
    ],
    [
      "W",
      "e</w>"
    ],
    [
      "e",
      "ven</w>"
    ],
    [
      "\"",
      "T"
    ],
    [
      "ch",
      ".</w>"
    ],
    [
      "t",
      "ic"
    ],
    [
      "l",
      ",</w>"
    ],
    [
      "st",
      "o"
    ],
    [
      "f",
      "ac"
    ],
    [
      "mom",
      "my</w>"
    ],
    [
      "n",
      ".</w>"
    ],
    [
      "wa",
      "ter</w>"
    ],
    [
      "sur",
      "pri"
    ],
    [
      "f",
      "lew</w>"
    ],
    [
      "d",
      "y</w>"
    ],
    [
      "lear",
      "ned</w>"
    ],
    [
      "beauti",
      "ful</w>"
    ],
    [
      "too",
      ".</w>"
    ],
    [
      "E",
      "very</w>"
    ],
    [
      "e",
      "very</w>"
    ],
    [
      "ac",
      "h"
    ],
    [
      "p",
      "er"
    ],
    [
      "I'",
      "m</w>"
    ],
    [
      "wh",
      "ere</w>"
    ],
    [
      "Mi",
      "a</w>"
    ],
    [
      "\"",
      "Y"
    ],
    [
      "b",
      "r"
    ],
    [
      "c",
      "oo"
    ],
    [
      "bo",
      "o"
    ],
    [
      "A",
      "fter</w>"
    ],
    [
      "w",
      "on"
    ],
    [
      "on",
      "e.</w>"
    ],
    [
      "s",
      "s"
    ],
    [
      "for",
      "e"
    ],
    [
      "tw",
      "o</w>"
    ],
    [
      "pe",
      "op"
    ],
    [
      "Joh",
      "n</w>"
    ],
    [
      "d",
      "on't</w>"
    ],
    [
      "hom",
      "e</w>"
    ],
    [
      "ke",
      "pt</w>"
    ],
    [
      "am",
      "a"
    ],
    [
      "v",
      "e.</w>"
    ],
    [
      "f",
      "oo"
    ],
    [
      "say",
      "s,</w>"
    ],
    [
      "er",
      "ed</w>"
    ],
    [
      "anim",
      "al"
    ],
    [
      "\"",
      "O"
    ],
    [
      "at",
      "e</w>"
    ],
    [
      "y",
      "ed</w>"
    ],
    [
      "y",
      "ing</w>"
    ],
    [
      "of",
      "f</w>"
    ],
    [
      "it",
      ",</w>"
    ],
    [
      "st",
      "ill</w>"
    ],
    [
      "m",
      "y.</w>"
    ],
    [
      "scar",
      "ed</w>"
    ],
    [
      "car",
      "</w>"
    ],
    [
      "e",
      "ver</w>"
    ],
    [
      "wa",
      "y</w>"
    ],
    [
      "ama",
      "z"
    ],
    [
      "ro",
      "om.</w>"
    ],
    [
      "p",
      "r"
    ],
    [
      "e",
      "y"
    ],
    [
      "feel",
      "ing</w>"
    ],
    [
      "c",
      "an"
    ],
    [
      "Luc",
      "y</w>"
    ],
    [
      "sa",
      "d.</w>"
    ],
    [
      "h",
      "ur"
    ],
    [
      "”",
      "</w>"
    ],
    [
      "bo",
      "th</w>"
    ],
    [
      "fri",
      "end</w>"
    ],
    [
      "h",
      "er"
    ],
    [
      "tr",
      "uc"
    ],
    [
      "tre",
      "e</w>"
    ],
    [
      "A",
      "s</w>"
    ],
    [
      "s",
      "s.</w>"
    ],
    [
      "or",
      ".</w>"
    ],
    [
      "n",
      "o</w>"
    ],
    [
      "d",
      "r"
    ],
    [
      "n",
      "ing</w>"
    ],
    [
      "li",
      "st"
    ],
    [
      "l",
      "u"
    ],
    [
      "th",
      "re"
    ],
    [
      "C",
      "an</w>"
    ],
    [
      "Th",
      "en</w>"
    ],
    [
      "dd",
      "y</w>"
    ],
    [
      "par",
      "k</w>"
    ],
    [
      "c",
      "ra"
    ],
    [
      "Ma",
      "x</w>"
    ],
    [
      "to",
      "ys</w>"
    ],
    [
      "t",
      "al"
    ],
    [
      "laugh",
      "ed</w>"
    ],
    [
      "lon",
      "g</w>"
    ],
    [
      "k",
      "s.</w>"
    ],
    [
      "c",
      "on"
    ],
    [
      "bl",
      "u"
    ],
    [
      "sh",
      "ow"
    ],
    [
      "mom",
      ".</w>"
    ],
    [
      "s",
      "li"
    ],
    [
      "B",
      "o"
    ],
    [
      "ra",
      "bb"
    ],
    [
      "ma",
      "g"
    ],
    [
      "c",
      "at"
    ],
    [
      "care",
      "fu"
    ],
    [
      "n",
      "a"
    ],
    [
      "be",
      "ar</w>"
    ],
    [
      "advent",
      "ure"
    ],
    [
      "re",
      "ad"
    ],
    [
      "e",
      "at</w>"
    ],
    [
      "c",
      "e"
    ],
    [
      "f",
      "ly</w>"
    ],
    [
      "tic",
      "ed</w>"
    ],
    [
      "bu",
      "tt"
    ],
    [
      "me",
      "mb"
    ],
    [
      "lo",
      "w</w>"
    ],
    [
      "sh",
      "ar"
    ],
    [
      "ri",
      "ght</w>"
    ],
    [
      "sp",
      "o"
    ],
    [
      "an",
      "c"
    ],
    [
      "c",
      "li"
    ],
    [
      "M",
      "ol"
    ],
    [
      "f",
      "ir"
    ],
    [
      "f",
      "ol"
    ],
    [
      "pre",
      "tt"
    ],
    [
      "gi",
      "ve</w>"
    ],
    [
      "str",
      "on"
    ],
    [
      "\"",
      "N"
    ],
    [
      "lou",
      "d</w>"
    ],
    [
      "m",
      "ou"
    ],
    [
      "ke",
      "t</w>"
    ],
    [
      "he",
      "a"
    ],
    [
      "d",
      "er</w>"
    ],
    [
      "ex",
      "t</w>"
    ],
    [
      "S",
      "o,</w>"
    ],
    [
      "every",
      "one</w>"
    ],
    [
      "en",
      "t.</w>"
    ],
    [
      "Every",
      "one</w>"
    ],
    [
      "n",
      "ic"
    ],
    [
      "be",
      "for"
    ],
    [
      "re",
      "memb"
    ],
    [
      "sun",
      "</w>"
    ],
    [
      "you",
      ",</w>"
    ],
    [
      "big",
      ",</w>"
    ],
    [
      "op",
      "ened</w>"
    ],
    [
      "le",
      "e"
    ],
    [
      "t",
      "el"
    ],
    [
      "won",
      "der"
    ],
    [
      "n",
      "ice</w>"
    ],
    [
      "um",
      "my</w>"
    ],
    [
      "in",
      "k</w>"
    ],
    [
      "wal",
      "ked</w>"
    ],
    [
      "goo",
      "d"
    ],
    [
      "g",
      "u"
    ],
    [
      "r",
      "y,</w>"
    ],
    [
      "no",
      "ticed</w>"
    ],
    [
      "as",
      "t</w>"
    ],
    [
      "k",
      "a"
    ],
    [
      "i",
      "e"
    ],
    [
      "peop",
      "le</w>"
    ],
    [
      "cli",
      "mb"
    ],
    [
      "c",
      "ha"
    ],
    [
      "ro",
      "w"
    ],
    [
      "li",
      "c"
    ],
    [
      "v",
      "es</w>"
    ],
    [
      "n",
      "ext</w>"
    ],
    [
      "a",
      ".</w>"
    ],
    [
      "ou",
      "r</w>"
    ],
    [
      "m",
      "on"
    ],
    [
      "bo",
      "x</w>"
    ],
    [
      "b",
      "all</w>"
    ],
    [
      "k",
      "ed.</w>"
    ],
    [
      "I",
      "t's</w>"
    ],
    [
      "ou",
      "r"
    ],
    [
      "T",
      "om"
    ],
    [
      "c",
      "at</w>"
    ],
    [
      "ab",
      "le</w>"
    ],
    [
      "t",
      "ry</w>"
    ],
    [
      "m",
      "in"
    ],
    [
      "qu",
      "ick"
    ],
    [
      "smil",
      "ed.</w>"
    ],
    [
      "id",
      "ea"
    ],
    [
      "g",
      "er</w>"
    ],
    [
      "e",
      "m"
    ],
    [
      "mag",
      "ic"
    ],
    [
      "fi",
      "sh</w>"
    ],
    [
      "so",
      "on</w>"
    ],
    [
      "en",
      "jo"
    ],
    [
      "ro",
      "om</w>"
    ],
    [
      "ur",
      "e</w>"
    ],
    [
      "ch",
      "il"
    ],
    [
      "sh",
      "are</w>"
    ],
    [
      "Th",
      "ank</w>"
    ],
    [
      "hou",
      "se.</w>"
    ],
    [
      "h",
      "and"
    ],
    [
      "t",
      "e</w>"
    ],
    [
      "do",
      "l"
    ],
    [
      "\"Y",
      "es,</w>"
    ],
    [
      "be",
      "g"
    ],
    [
      "mor",
      "e.</w>"
    ],
    [
      "th",
      ".</w>"
    ],
    [
      "shin",
      "y</w>"
    ],
    [
      "m",
      "ar"
    ],
    [
      "sh",
      ".</w>"
    ],
    [
      "t",
      "y</w>"
    ],
    [
      "b",
      "y"
    ],
    [
      "\"",
      "Let's</w>"
    ],
    [
      "lo",
      "ve</w>"
    ],
    [
      "sa",
      "f"
    ],
    [
      "no",
      "dd"
    ],
    [
      "at",
      "i"
    ],
    [
      "b",
      "lo"
    ],
    [
      "to",
      "y"
    ],
    [
      "happ",
      "en"
    ],
    [
      "f",
      ".</w>"
    ],
    [
      "sh",
      "ould</w>"
    ],
    [
      "ha",
      "t's</w>"
    ],
    [
      "an",
      "e</w>"
    ],
    [
      "Lil",
      "y's</w>"
    ],
    [
      "wh",
      "il"
    ],
    [
      "pic",
      "ked</w>"
    ],
    [
      "di",
      "ff"
    ],
    [
      "x",
      ".</w>"
    ],
    [
      "g",
      "la"
    ],
    [
      "be",
      "came</w>"
    ],
    [
      "wal",
      "king</w>"
    ],
    [
      "go",
      "ing</w>"
    ],
    [
      "k",
      "ind</w>"
    ],
    [
      "clo",
      "s"
    ],
    [
      "t",
      "ou"
    ],
    [
      "v",
      "o"
    ],
    [
      "t",
      "ra"
    ],
    [
      "ha",
      "s</w>"
    ],
    [
      "i",
      "l</w>"
    ],
    [
      "col",
      "or"
    ],
    [
      "up",
      ".</w>"
    ],
    [
      "loo",
      "king</w>"
    ],
    [
      "wat",
      "ched</w>"
    ],
    [
      "be",
      "ing</w>"
    ],
    [
      "good",
      "by"
    ],
    [
      "run",
      "</w>"
    ],
    [
      "in",
      "side</w>"
    ],
    [
      "care",
      "ful</w>"
    ],
    [
      "Su",
      "e</w>"
    ],
    [
      "bb",
      "ed</w>"
    ],
    [
      "gh",
      "t"
    ],
    [
      "sk",
      "y.</w>"
    ],
    [
      "h",
      "igh"
    ],
    [
      "ed",
      "!</w>"
    ],
    [
      "rabb",
      "it</w>"
    ],
    [
      "quick",
      "ly</w>"
    ],
    [
      "gh",
      "t.</w>"
    ],
    [
      "sw",
      "ee"
    ],
    [
      "al",
      "so</w>"
    ],
    [
      "S",
      "po"
    ],
    [
      "B",
      "en"
    ],
    [
      "w",
      "r"
    ],
    [
      "?",
      "</w>"
    ],
    [
      "Sara",
      "h</w>"
    ],
    [
      "gre",
      "at</w>"
    ],
    [
      "st",
      "e"
    ],
    [
      "t",
      "in"
    ],
    [
      "thing",
      "s.</w>"
    ],
    [
      "al",
      ".</w>"
    ],
    [
      "it",
      "'s</w>"
    ],
    [
      "\"",
      "You</w>"
    ],
    [
      "bo",
      "at</w>"
    ],
    [
      "cu",
      "ri"
    ],
    [
      "Mom",
      "my</w>"
    ],
    [
      "pa",
      "in"
    ],
    [
      "\"N",
      "o,</w>"
    ],
    [
      "fam",
      "ily</w>"
    ],
    [
      "gr",
      "ound.</w>"
    ],
    [
      "f",
      "il"
    ],
    [
      "d",
      "ra"
    ],
    [
      "o",
      "ther.</w>"
    ],
    [
      "m",
      "i"
    ],
    [
      "sto",
      "pped</w>"
    ],
    [
      "h",
      "ar"
    ],
    [
      "c",
      "la"
    ],
    [
      "beg",
      "an</w>"
    ],
    [
      "be",
      "en</w>"
    ],
    [
      "tre",
      "e.</w>"
    ],
    [
      "diff",
      "er"
    ],
    [
      "r",
      "id"
    ],
    [
      "im",
      "p"
    ],
    [
      "d",
      "ar"
    ],
    [
      "explor",
      "e</w>"
    ],
    [
      "Da",
      "is"
    ],
    [
      "e",
      "s"
    ],
    [
      "ear",
      "s</w>"
    ],
    [
      "b",
      "rea"
    ],
    [
      "pla",
      "y.</w>"
    ],
    [
      "k",
      "eep</w>"
    ],
    [
      "a",
      "pp"
    ],
    [
      "b",
      "it</w>"
    ],
    [
      "sta",
      "y</w>"
    ],
    [
      "Lil",
      "a</w>"
    ],
    [
      "f",
      "ast</w>"
    ],
    [
      "ow",
      ",</w>"
    ],
    [
      "w",
      "in"
    ],
    [
      "k",
      "e.</w>"
    ],
    [
      "tim",
      "e.</w>"
    ],
    [
      "s",
      "ha"
    ],
    [
      "scar",
      "ed.</w>"
    ],
    [
      "s",
      "qu"
    ],
    [
      "s",
      "lee"
    ],
    [
      "idea",
      ".</w>"
    ],
    [
      "th",
      "rou"
    ],
    [
      "ne",
      "ed</w>"
    ],
    [
      "y",
      "be</w>"
    ],
    [
      "bal",
      "lo"
    ],
    [
      "help",
      ".</w>"
    ],
    [
      "Th",
      "en,</w>"
    ],
    [
      "y",
      ".\"</w>"
    ],
    [
      "gard",
      "en.</w>"
    ],
    [
      "pla",
      "c"
    ],
    [
      "st",
      "er</w>"
    ],
    [
      "ang",
      "e</w>"
    ],
    [
      "bra",
      "ve</w>"
    ],
    [
      "e",
      "!</w>"
    ],
    [
      "ou",
      "s.</w>"
    ],
    [
      "ar",
      ".</w>"
    ],
    [
      "l",
      "s</w>"
    ],
    [
      "lo",
      "t</w>"
    ],
    [
      "y",
      "el"
    ],
    [
      "h",
      "id"
    ],
    [
      "throu",
      "gh</w>"
    ],
    [
      "Mol",
      "ly</w>"
    ],
    [
      "e",
      ".\"</w>"
    ],
    [
      "\"",
      "D"
    ],
    [
      "w",
      "el"
    ],
    [
      "z",
      "ed</w>"
    ],
    [
      "n",
      "i"
    ],
    [
      "sa",
      "y</w>"
    ],
    [
      "h",
      "ard</w>"
    ],
    [
      "sor",
      "ry</w>"
    ],
    [
      "t",
      "ing</w>"
    ],
    [
      "ha",
      "ving</w>"
    ],
    [
      "friend",
      ".</w>"
    ],
    [
      "blu",
      "e</w>"
    ],
    [
      "jum",
      "ped</w>"
    ],
    [
      "gla",
      "d</w>"
    ],
    [
      "fa",
      "v"
    ],
    [
      "hou",
      "se</w>"
    ],
    [
      "p",
      "e</w>"
    ],
    [
      "you",
      ".</w>"
    ],
    [
      "i",
      "g"
    ],
    [
      "sur",
      "e</w>"
    ],
    [
      "-",
      "</w>"
    ],
    [
      "read",
      "y</w>"
    ],
    [
      "ne",
      "ar</w>"
    ],
    [
      "u",
      "g</w>"
    ],
    [
      "c",
      "ri"
    ],
    [
      "t",
      "er"
    ],
    [
      "thre",
      "e</w>"
    ],
    [
      "st",
      "ic"
    ],
    [
      "o",
      "w</w>"
    ],
    [
      "th",
      "en,</w>"
    ],
    [
      "gra",
      "bbed</w>"
    ],
    [
      "no",
      "i"
    ],
    [
      "pr",
      "in"
    ],
    [
      "in",
      "ed</w>"
    ],
    [
      "aga",
      "in"
    ],
    [
      "y",
      "!\"</w>"
    ],
    [
      "excit",
      "ed.</w>"
    ],
    [
      "r",
      "e</w>"
    ],
    [
      "l",
      "ly</w>"
    ],
    [
      "no",
      "w</w>"
    ],
    [
      ":",
      "</w>"
    ],
    [
      "se",
      "en</w>"
    ],
    [
      "Ma",
      "ybe</w>"
    ],
    [
      "p",
      "il"
    ],
    [
      "wa",
      "ved</w>"
    ],
    [
      "d",
      "ro"
    ],
    [
      "\"",
      "Thank</w>"
    ],
    [
      "i",
      "ous</w>"
    ],
    [
      "rea",
      "li"
    ],
    [
      "fil",
      "led</w>"
    ],
    [
      "p",
      "i"
    ],
    [
      "a",
      "fter</w>"
    ],
    [
      "tt",
      "ing</w>"
    ],
    [
      "ar",
      "m"
    ],
    [
      "bett",
      "er.</w>"
    ],
    [
      "n",
      "igh"
    ],
    [
      "wat",
      "er.</w>"
    ],
    [
      "show",
      "ed</w>"
    ],
    [
      "k",
      "it"
    ],
    [
      "al",
      "ly,</w>"
    ],
    [
      "bac",
      "k.</w>"
    ],
    [
      "blo",
      "c"
    ],
    [
      "butt",
      "er"
    ],
    [
      "in",
      "side.</w>"
    ],
    [
      "A",
      "</w>"
    ],
    [
      "ta",
      "st"
    ],
    [
      "Bo",
      "b</w>"
    ],
    [
      "ro",
      "c"
    ],
    [
      "ne",
      "ed"
    ],
    [
      "animal",
      "s</w>"
    ],
    [
      "pre",
      "t"
    ],
    [
      "gre",
      "en</w>"
    ],
    [
      "d",
      "is"
    ],
    [
      "a",
      "t.</w>"
    ],
    [
      "gard",
      "en</w>"
    ],
    [
      "b",
      "le</w>"
    ],
    [
      "li",
      "e"
    ],
    [
      "ach",
      "ed</w>"
    ],
    [
      "toy",
      "s.</w>"
    ],
    [
      "le",
      "as"
    ],
    [
      "war",
      "m</w>"
    ],
    [
      "s",
      ".\"</w>"
    ],
    [
      "cle",
      "an</w>"
    ],
    [
      "l",
      "led</w>"
    ],
    [
      "wa",
      "it"
    ],
    [
      "el",
      "e"
    ],
    [
      "p",
      "en"
    ],
    [
      "d",
      "s.</w>"
    ],
    [
      "T",
      "om.</w>"
    ],
    [
      "sho",
      "w</w>"
    ],
    [
      "\"",
      ".</w>"
    ],
    [
      "ther",
      ",</w>"
    ],
    [
      "pla",
      "ce</w>"
    ],
    [
      "differ",
      "ent</w>"
    ],
    [
      "la",
      "dy</w>"
    ],
    [
      "d",
      "in"
    ],
    [
      "g",
      "s</w>"
    ],
    [
      "L",
      "oo"
    ],
    [
      "g",
      "am"
    ],
    [
      "out",
      "side.</w>"
    ],
    [
      "f",
      "lo"
    ],
    [
      "en",
      "ts</w>"
    ],
    [
      "hom",
      "e,</w>"
    ],
    [
      "aga",
      "in</w>"
    ],
    [
      "pl",
      "an"
    ],
    [
      "f",
      "re"
    ],
    [
      "st",
      ",</w>"
    ],
    [
      "any",
      "more.</w>"
    ],
    [
      "b",
      "le"
    ],
    [
      "help",
      "ed</w>"
    ],
    [
      "re",
      "ally</w>"
    ],
    [
      "\"W",
      "hat</w>"
    ],
    [
      "J",
      "ane</w>"
    ],
    [
      "ar",
      "y</w>"
    ],
    [
      "e",
      "!\"</w>"
    ],
    [
      "k",
      "id"
    ],
    [
      "car",
      ".</w>"
    ],
    [
      "or",
      "t"
    ],
    [
      "t",
      "ure"
    ],
    [
      "ver",
      ".</w>"
    ],
    [
      "th",
      "at"
    ],
    [
      "th",
      "an</w>"
    ],
    [
      "as",
      "ked.</w>"
    ],
    [
      "ho",
      "pped</w>"
    ],
    [
      "to",
      "w"
    ],
    [
      "ey",
      "es</w>"
    ],
    [
      "Tim",
      "m"
    ],
    [
      "sm",
      "el"
    ],
    [
      "mou",
      "se</w>"
    ],
    [
      "wat",
      "ch</w>"
    ],
    [
      "\"",
      "I'm</w>"
    ],
    [
      "f",
      "ro"
    ],
    [
      "Dais",
      "y</w>"
    ],
    [
      "fel",
      "l</w>"
    ],
    [
      "hur",
      "t</w>"
    ],
    [
      "s",
      "e,</w>"
    ],
    [
      "wa",
      "it</w>"
    ],
    [
      "bo",
      "x.</w>"
    ],
    [
      "truc",
      "k</w>"
    ],
    [
      "high",
      "</w>"
    ],
    [
      "y",
      "ears</w>"
    ],
    [
      "el",
      "y</w>"
    ],
    [
      "fu",
      "l.</w>"
    ],
    [
      "th",
      "ing.</w>"
    ],
    [
      "\"H",
      "el"
    ],
    [
      "wonder",
      "ful</w>"
    ],
    [
      "b",
      "right</w>"
    ],
    [
      "f",
      "la"
    ],
    [
      "s",
      "he"
    ],
    [
      "enjo",
      "yed</w>"
    ],
    [
      "w",
      "oo"
    ],
    [
      "chil",
      "dr"
    ],
    [
      "un",
      "der</w>"
    ],
    [
      "h",
      "or"
    ],
    [
      "l",
      "ing</w>"
    ],
    [
      "rememb",
      "ered</w>"
    ],
    [
      "bett",
      "er</w>"
    ],
    [
      "goodby",
      "e</w>"
    ],
    [
      "run",
      "ning</w>"
    ],
    [
      "A",
      "t</w>"
    ],
    [
      "prett",
      "y</w>"
    ],
    [
      "h",
      "ol"
    ],
    [
      "tel",
      "l</w>"
    ],
    [
      "de",
      "lic"
    ],
    [
      "sk",
      "y</w>"
    ],
    [
      "p",
      "ur"
    ],
    [
      "\"",
      "Mom"
    ],
    [
      "d",
      "ri"
    ],
    [
      "imp",
      "ort"
    ],
    [
      "him",
      "sel"
    ],
    [
      "end",
      ".</w>"
    ],
    [
      "h",
      "un"
    ],
    [
      "f",
      "l"
    ],
    [
      "do",
      "es</w>"
    ],
    [
      "be",
      "h"
    ],
    [
      "ab",
      "y</w>"
    ],
    [
      "an",
      "d.</w>"
    ],
    [
      "bl",
      "e.</w>"
    ],
    [
      "F",
      "in"
    ],
    [
      "fav",
      "or"
    ],
    [
      "s",
      "low"
    ],
    [
      "S",
      "am"
    ],
    [
      "clos",
      "er</w>"
    ],
    [
      "b",
      "ar"
    ],
    [
      "o",
      "ka"
    ],
    [
      "p",
      "li"
    ],
    [
      "se",
      "es</w>"
    ],
    [
      "li",
      "kes</w>"
    ],
    [
      "a",
      "f"
    ],
    [
      "il",
      "ly</w>"
    ],
    [
      "ke",
      "d,</w>"
    ],
    [
      "loo",
      "ks</w>"
    ],
    [
      "er",
      "s.</w>"
    ],
    [
      "re",
      "ached</w>"
    ],
    [
      "on",
      "ly</w>"
    ],
    [
      "no",
      "is"
    ],
    [
      "\"",
      "Loo"
    ],
    [
      "li",
      "ght</w>"
    ],
    [
      "A",
      "ll</w>"
    ],
    [
      "w",
      "ind</w>"
    ],
    [
      "smil",
      "e</w>"
    ],
    [
      "st",
      "re"
    ],
    [
      "si",
      "g"
    ],
    [
      "g",
      "e.</w>"
    ],
    [
      "h",
      "ug</w>"
    ],
    [
      "le",
      "t</w>"
    ],
    [
      "ba",
      "d</w>"
    ],
    [
      "u",
      "sed</w>"
    ],
    [
      "nodd",
      "ed</w>"
    ],
    [
      "Jo",
      "e</w>"
    ],
    [
      "z",
      "z"
    ],
    [
      "un",
      "der"
    ],
    [
      "fol",
      "low"
    ],
    [
      "t",
      "er.</w>"
    ],
    [
      "d",
      "ing</w>"
    ],
    [
      "Tim",
      "my.</w>"
    ],
    [
      "wh",
      "y</w>"
    ],
    [
      "Spo",
      "t</w>"
    ],
    [
      "dow",
      "n.</w>"
    ],
    [
      "ro",
      "w</w>"
    ],
    [
      "J",
      "ac"
    ],
    [
      "’",
      "s</w>"
    ],
    [
      "Th",
      "ere</w>"
    ],
    [
      "c",
      "r"
    ],
    [
      "happen",
      "ed.</w>"
    ],
    [
      "B",
      "en.</w>"
    ],
    [
      "do",
      "g.</w>"
    ],
    [
      "cat",
      "ch</w>"
    ],
    [
      "ir",
      "ed</w>"
    ],
    [
      "magic",
      "al</w>"
    ],
    [
      "favor",
      "ite</w>"
    ],
    [
      "ar",
      "ound.</w>"
    ],
    [
      "b",
      "or"
    ],
    [
      "befor",
      "e</w>"
    ],
    [
      "kno",
      "w"
    ],
    [
      "sa",
      "t</w>"
    ],
    [
      "ar",
      "d.</w>"
    ],
    [
      "rea",
      "d</w>"
    ],
    [
      "t",
      "eac"
    ],
    [
      "ing",
      "s</w>"
    ],
    [
      "re",
      "pli"
    ],
    [
      "gir",
      "l.</w>"
    ],
    [
      "under",
      "st"
    ],
    [
      "man",
      ".</w>"
    ],
    [
      "\"W",
      "e</w>"
    ],
    [
      "om",
      "e</w>"
    ],
    [
      "beh",
      "ind</w>"
    ],
    [
      "ma",
      "king</w>"
    ],
    [
      "mo",
      "st</w>"
    ],
    [
      "pic",
      "ture"
    ],
    [
      "\"",
      "Can</w>"
    ],
    [
      "pic",
      "k</w>"
    ],
    [
      "'",
      "re</w>"
    ],
    [
      "bu",
      "g</w>"
    ],
    [
      "a",
      "gre"
    ],
    [
      "kit",
      "ch"
    ],
    [
      "wr",
      "on"
    ],
    [
      "p",
      "ro"
    ],
    [
      "nam",
      "e</w>"
    ],
    [
      "bac",
      "k"
    ],
    [
      "b",
      "aby</w>"
    ],
    [
      "mu",
      "m</w>"
    ],
    [
      "sa",
      "il"
    ],
    [
      "pu",
      "pp"
    ],
    [
      "s",
      "!</w>"
    ],
    [
      "reali",
      "zed</w>"
    ],
    [
      "\"",
      "Wh"
    ],
    [
      "\"",
      "It's</w>"
    ],
    [
      "J",
      "im"
    ],
    [
      "some",
      "one</w>"
    ],
    [
      "can",
      "'t</w>"
    ],
    [
      "me",
      "an</w>"
    ],
    [
      "lear",
      "n</w>"
    ],
    [
      "in",
      "e</w>"
    ],
    [
      "ou",
      "t.</w>"
    ],
    [
      "wi",
      "shed</w>"
    ],
    [
      "oun",
      "d,</w>"
    ],
    [
      "se",
      "d.</w>"
    ],
    [
      "coo",
      "k"
    ],
    [
      "bal",
      "l.</w>"
    ],
    [
      "k",
      "in"
    ],
    [
      "sh",
      "out"
    ],
    [
      "f",
      "ec"
    ],
    [
      "il",
      "y.</w>"
    ],
    [
      "f",
      "ar</w>"
    ],
    [
      "um",
      "b"
    ],
    [
      "g",
      ",</w>"
    ],
    [
      "the",
      "m"
    ],
    [
      "ir",
      ".</w>"
    ],
    [
      "import",
      "ant</w>"
    ],
    [
      "v",
      "is"
    ],
    [
      "bro",
      "k"
    ],
    [
      "carefu",
      "lly</w>"
    ],
    [
      "s",
      "ing</w>"
    ],
    [
      "do",
      ".</w>"
    ],
    [
      "per",
      "fec"
    ],
    [
      "fin",
      "ally</w>"
    ],
    [
      "p",
      "as"
    ],
    [
      "yel",
      "low</w>"
    ],
    [
      "f",
      "ru"
    ],
    [
      "do",
      "ll</w>"
    ],
    [
      "T",
      "o"
    ],
    [
      "D",
      "o</w>"
    ],
    [
      "le",
      "t's</w>"
    ],
    [
      "s",
      "of"
    ],
    [
      "flow",
      "er</w>"
    ],
    [
      "flow",
      "ers</w>"
    ],
    [
      "co",
      "ver"
    ],
    [
      "her",
      "sel"
    ],
    [
      "h",
      "i"
    ],
    [
      "s",
      "n"
    ],
    [
      "sa",
      "ys</w>"
    ],
    [
      "happ",
      "ily</w>"
    ],
    [
      "fu",
      "ll</w>"
    ],
    [
      "fin",
      "i"
    ],
    [
      "he",
      "ar</w>"
    ],
    [
      "saf",
      "e</w>"
    ],
    [
      "y",
      "ummy</w>"
    ],
    [
      "t",
      "ired</w>"
    ],
    [
      "d",
      "anc"
    ],
    [
      "speci",
      "al.</w>"
    ],
    [
      "con",
      "tin"
    ],
    [
      "contin",
      "u"
    ],
    [
      "se",
      "ar"
    ],
    [
      "b",
      "ed</w>"
    ],
    [
      "g",
      "g"
    ],
    [
      "Fin",
      "ally,</w>"
    ],
    [
      "com",
      "ing</w>"
    ],
    [
      "ar",
      "ri"
    ],
    [
      "le",
      "ss"
    ],
    [
      "m",
      "y,</w>"
    ],
    [
      "ge",
      "tting</w>"
    ],
    [
      "nois",
      "e.</w>"
    ],
    [
      "ic",
      "e.</w>"
    ],
    [
      "he",
      "ld</w>"
    ],
    [
      "ca",
      "ke</w>"
    ],
    [
      "c",
      "or"
    ],
    [
      "friend",
      "s,</w>"
    ],
    [
      "bir",
      "d.</w>"
    ],
    [
      "boo",
      "k</w>"
    ],
    [
      "p",
      "on"
    ],
    [
      "\"D",
      "on't</w>"
    ],
    [
      "T",
      "his</w>"
    ],
    [
      "il",
      "l.</w>"
    ],
    [
      "!",
      "”</w>"
    ],
    [
      "smil",
      "e.</w>"
    ],
    [
      "c",
      "ry.</w>"
    ],
    [
      "ang",
      "ry.</w>"
    ],
    [
      "he",
      "ar"
    ],
    [
      "tim",
      "es</w>"
    ],
    [
      "oo",
      "d</w>"
    ],
    [
      "ca",
      "st"
    ],
    [
      "list",
      "en</w>"
    ],
    [
      "p",
      "h"
    ],
    [
      "i",
      "es</w>"
    ],
    [
      "continu",
      "ed</w>"
    ],
    [
      "vo",
      "ice</w>"
    ],
    [
      "b",
      "la"
    ],
    [
      "adventure",
      ".</w>"
    ],
    [
      "se",
      "e"
    ],
    [
      "g",
      "ent"
    ],
    [
      "an",
      "other</w>"
    ],
    [
      "op",
      "en</w>"
    ],
    [
      "s",
      "on"
    ],
    [
      "wor",
      "ked</w>"
    ],
    [
      "s",
      "pla"
    ],
    [
      "friend",
      ",</w>"
    ],
    [
      "wal",
      "k</w>"
    ],
    [
      "e",
      "t</w>"
    ],
    [
      "do",
      "or</w>"
    ],
    [
      "T",
      "hat</w>"
    ],
    [
      "t",
      "e.</w>"
    ],
    [
      "se",
      "cre"
    ],
    [
      "da",
      "d.</w>"
    ],
    [
      "u",
      "ght</w>"
    ],
    [
      "t",
      "y.</w>"
    ],
    [
      "fac",
      "e.</w>"
    ],
    [
      "S",
      "o"
    ],
    [
      "J",
      "ill</w>"
    ],
    [
      "E",
      "m"
    ],
    [
      "\"T",
      "hat's</w>"
    ],
    [
      "f",
      "o"
    ],
    [
      "on",
      "s</w>"
    ],
    [
      "climb",
      "ed</w>"
    ],
    [
      "Timm",
      "y's</w>"
    ],
    [
      "I",
      "n</w>"
    ],
    [
      "car",
      "s</w>"
    ],
    [
      "bu",
      "il"
    ],
    [
      "ke",
      "t.</w>"
    ],
    [
      "en",
      "ou"
    ],
    [
      "b",
      "er"
    ],
    [
      "sh",
      "i"
    ],
    [
      "dre",
      "ss</w>"
    ],
    [
      "sor",
      "ry.</w>"
    ],
    [
      "bu",
      "c"
    ],
    [
      "f",
      "ur"
    ],
    [
      "wh",
      "i"
    ],
    [
      "m",
      "a</w>"
    ],
    [
      "swee",
      "t</w>"
    ],
    [
      "l",
      "d.</w>"
    ],
    [
      "bir",
      "d"
    ],
    [
      "\"Hel",
      "lo"
    ],
    [
      "pp",
      "ing</w>"
    ],
    [
      "gr",
      "ound</w>"
    ],
    [
      "d",
      "eep</w>"
    ],
    [
      "o",
      "ther"
    ],
    [
      "b",
      "rou"
    ],
    [
      "pre",
      "s"
    ],
    [
      "p",
      ",</w>"
    ],
    [
      "is",
      "ed</w>"
    ],
    [
      "se",
      "t</w>"
    ],
    [
      "amaz",
      "ing</w>"
    ],
    [
      "wa",
      "s.</w>"
    ],
    [
      "bir",
      "ds</w>"
    ],
    [
      "ch",
      "ing</w>"
    ],
    [
      "cre",
      "am"
    ],
    [
      "excit",
      "ed!</w>"
    ],
    [
      "p",
      "s</w>"
    ],
    [
      "par",
      "ents</w>"
    ],
    [
      "\"",
      "S"
    ],
    [
      "Lil",
      "y,</w>"
    ],
    [
      "sof",
      "t</w>"
    ],
    [
      "ho",
      "le</w>"
    ],
    [
      "qu",
      "e"
    ],
    [
      "sor",
      "ry,</w>"
    ],
    [
      "no",
      "w"
    ],
    [
      "on",
      "e,</w>"
    ],
    [
      "a",
      "g"
    ],
    [
      "vent",
      "u"
    ],
    [
      "din",
      "n"
    ],
    [
      "le",
      "s</w>"
    ],
    [
      "d",
      "ed</w>"
    ],
    [
      "ac",
      "h</w>"
    ],
    [
      "sid",
      "e,</w>"
    ],
    [
      "gr",
      "and"
    ],
    [
      "up",
      ",</w>"
    ],
    [
      "friend",
      "ly</w>"
    ],
    [
      "you",
      ".\"</w>"
    ],
    [
      "ch",
      "oo"
    ],
    [
      "brou",
      "ght</w>"
    ],
    [
      "f",
      "t</w>"
    ],
    [
      "mu",
      "ch.</w>"
    ],
    [
      "tur",
      "ned</w>"
    ],
    [
      "c",
      "oun"
    ],
    [
      "st",
      "u"
    ],
    [
      "bro",
      "ther</w>"
    ],
    [
      "th",
      "in"
    ],
    [
      "Tom",
      "my</w>"
    ],
    [
      "cra",
      "y"
    ],
    [
      "whil",
      "e</w>"
    ],
    [
      "b",
      ".</w>"
    ],
    [
      "be",
      "d.</w>"
    ],
    [
      "dre",
      "am"
    ],
    [
      "\"",
      "M"
    ],
    [
      "on",
      "s.</w>"
    ],
    [
      "e",
      "at"
    ],
    [
      ".",
      "”</w>"
    ],
    [
      "t",
      "or"
    ],
    [
      "br",
      "an"
    ],
    [
      "prin",
      "ce"
    ],
    [
      "dar",
      "k</w>"
    ],
    [
      "fore",
      "st</w>"
    ],
    [
      "wh",
      "ite</w>"
    ],
    [
      "d",
      "e.</w>"
    ],
    [
      "wor",
      "ld</w>"
    ],
    [
      "y",
      ",\"</w>"
    ],
    [
      "sta",
      "yed</w>"
    ],
    [
      "ri",
      "ed</w>"
    ],
    [
      "k",
      "itt"
    ],
    [
      "se",
      "s</w>"
    ],
    [
      "e",
      "ar</w>"
    ],
    [
      "befor",
      "e.</w>"
    ],
    [
      "every",
      "thing</w>"
    ],
    [
      "\"Loo",
      "k,</w>"
    ],
    [
      "big",
      "ger</w>"
    ],
    [
      "pupp",
      "y</w>"
    ],
    [
      "butter",
      "fly</w>"
    ],
    [
      "hug",
      ".</w>"
    ],
    [
      "rac",
      "e</w>"
    ],
    [
      "t",
      "s.</w>"
    ],
    [
      "b",
      "un"
    ],
    [
      "as",
      "ked,</w>"
    ],
    [
      "fore",
      "st.</w>"
    ],
    [
      "qu",
      "ie"
    ],
    [
      "tou",
      "ch</w>"
    ],
    [
      "y",
      "?\"</w>"
    ],
    [
      "uc",
      "k</w>"
    ],
    [
      "ma",
      "kes</w>"
    ],
    [
      "c",
      "lou"
    ],
    [
      "car",
      "e</w>"
    ],
    [
      "stron",
      "g</w>"
    ],
    [
      "follow",
      "ed</w>"
    ],
    [
      "ir",
      "re"
    ],
    [
      "to",
      "p</w>"
    ],
    [
      "an",
      "y</w>"
    ],
    [
      "t",
      "all</w>"
    ],
    [
      "stor",
      "y</w>"
    ],
    [
      "pr",
      "om"
    ],
    [
      "uc",
      "k"
    ],
    [
      "bu",
      "y</w>"
    ],
    [
      "ch",
      "o"
    ],
    [
      "se",
      "em"
    ],
    [
      "d",
      "ir"
    ],
    [
      "f",
      "r"
    ],
    [
      "bo",
      "w"
    ],
    [
      "fe",
      "w</w>"
    ],
    [
      "bl",
      "an"
    ],
    [
      "v",
      "es.</w>"
    ],
    [
      "il",
      ".</w>"
    ],
    [
      "I",
      "n"
    ],
    [
      "hand",
      "s</w>"
    ],
    [
      "bo",
      "y.</w>"
    ],
    [
      "s",
      "ic"
    ],
    [
      "ra",
      "in"
    ],
    [
      "\"W",
      "ow,</w>"
    ],
    [
      "climb",
      "</w>"
    ],
    [
      "s",
      "n't</w>"
    ],
    [
      "ste",
      "pped</w>"
    ],
    [
      "g",
      "s.</w>"
    ],
    [
      "a",
      "tt"
    ],
    [
      "childr",
      "en</w>"
    ],
    [
      "sk",
      "i"
    ],
    [
      "S",
      "ally</w>"
    ],
    [
      "fi",
      "x</w>"
    ],
    [
      "need",
      "ed</w>"
    ],
    [
      "n",
      ",</w>"
    ],
    [
      "to",
      "y.</w>"
    ],
    [
      "N",
      "ow</w>"
    ],
    [
      "m",
      "is"
    ],
    [
      "sa",
      "me</w>"
    ],
    [
      "squ",
      "irre"
    ],
    [
      "Jim",
      "my</w>"
    ],
    [
      "wan",
      "ts</w>"
    ],
    [
      "sp",
      "ar"
    ],
    [
      "w",
      "o"
    ],
    [
      "c",
      "and"
    ],
    [
      "too",
      ",</w>"
    ],
    [
      "shar",
      "ed</w>"
    ],
    [
      "whil",
      "e,</w>"
    ],
    [
      "\"Hello",
      ",</w>"
    ],
    [
      "g",
      "ame</w>"
    ],
    [
      "y",
      "ard.</w>"
    ],
    [
      "foo",
      "d</w>"
    ],
    [
      "plac",
      "e.</w>"
    ],
    [
      "ar",
      "ound,</w>"
    ],
    [
      "\"",
      "It</w>"
    ],
    [
      "s",
      "and"
    ],
    [
      "tt",
      "er</w>"
    ],
    [
      "for",
      "got</w>"
    ],
    [
      "ti",
      "re"
    ],
    [
      "d",
      "!</w>"
    ],
    [
      "fi",
      "re"
    ],
    [
      "dol",
      "l.</w>"
    ],
    [
      "c",
      "old</w>"
    ],
    [
      "tre",
      "es</w>"
    ],
    [
      "kid",
      "s</w>"
    ],
    [
      "slee",
      "p"
    ],
    [
      "lu",
      "ff"
    ],
    [
      "\"",
      "B"
    ],
    [
      "Ben",
      "ny</w>"
    ],
    [
      "cra",
      "w"
    ],
    [
      "repli",
      "ed,</w>"
    ],
    [
      "ta",
      "ble</w>"
    ],
    [
      "su",
      "ch</w>"
    ],
    [
      "awa",
      "y,</w>"
    ],
    [
      "an",
      ".</w>"
    ],
    [
      "ballo",
      "on</w>"
    ],
    [
      "t",
      "un"
    ],
    [
      "a",
      ",</w>"
    ],
    [
      "s",
      "ol"
    ],
    [
      "Tim",
      ".</w>"
    ],
    [
      "pu",
      "lled</w>"
    ],
    [
      "k",
      "ne"
    ],
    [
      "t",
      "ru"
    ],
    [
      "fac",
      "e</w>"
    ],
    [
      "hea",
      "d</w>"
    ],
    [
      "e",
      "t.</w>"
    ],
    [
      "tal",
      "k</w>"
    ],
    [
      "stor",
      "e</w>"
    ],
    [
      "an",
      "ge"
    ],
    [
      "\"",
      "Maybe</w>"
    ],
    [
      "clo",
      "the"
    ],
    [
      "C",
      "ome</w>"
    ],
    [
      "b",
      "ri"
    ],
    [
      "seem",
      "ed</w>"
    ],
    [
      "sh",
      "oo"
    ],
    [
      "Da",
      "d</w>"
    ],
    [
      "be",
      "e"
    ],
    [
      "pret",
      "end</w>"
    ],
    [
      "l",
      "ar</w>"
    ],
    [
      "wait",
      "ed</w>"
    ],
    [
      "e",
      "?\"</w>"
    ],
    [
      "sm",
      "al"
    ],
    [
      "nic",
      "e.</w>"
    ],
    [
      "lon",
      "ger</w>"
    ],
    [
      "animal",
      "s.</w>"
    ],
    [
      "th",
      "ink</w>"
    ],
    [
      "prom",
      "ised</w>"
    ],
    [
      "p",
      "ink</w>"
    ],
    [
      "an",
      "ce</w>"
    ],
    [
      "fl",
      "ying</w>"
    ],
    [
      "p",
      "leas"
    ],
    [
      "wa",
      "sn't</w>"
    ],
    [
      "m",
      "ir"
    ],
    [
      "noi",
      "se</w>"
    ],
    [
      "le",
      "s.</w>"
    ],
    [
      "Da",
      "ddy</w>"
    ],
    [
      "ang",
      "ry</w>"
    ],
    [
      "stic",
      "k</w>"
    ],
    [
      "than",
      "k</w>"
    ],
    [
      "c",
      "t"
    ],
    [
      "mom",
      ",</w>"
    ],
    [
      "lo",
      "st</w>"
    ],
    [
      "W",
      "hat</w>"
    ],
    [
      "me",
      "t</w>"
    ],
    [
      "brok",
      "en</w>"
    ],
    [
      "list",
      "ened</w>"
    ],
    [
      "secre",
      "t</w>"
    ],
    [
      "delic",
      "ious</w>"
    ],
    [
      "ac",
      "ro"
    ],
    [
      "i",
      "e</w>"
    ],
    [
      "as",
      "k</w>"
    ],
    [
      "of",
      "f"
    ],
    [
      "curi",
      "ous</w>"
    ],
    [
      "s",
      "ing"
    ],
    [
      "w",
      "il"
    ],
    [
      "s",
      "it</w>"
    ],
    [
      "lea",
      "ves</w>"
    ],
    [
      "fi",
      "sh.</w>"
    ],
    [
      "w",
      "ea"
    ],
    [
      "p",
      "end"
    ],
    [
      "teac",
      "her</w>"
    ],
    [
      "pa",
      "p"
    ],
    [
      "st",
      "er"
    ],
    [
      "saf",
      "e.</w>"
    ],
    [
      "pi",
      "ec"
    ],
    [
      "So",
      "on,</w>"
    ],
    [
      "s",
      "il"
    ],
    [
      "fam",
      "ily.</w>"
    ],
    [
      "to",
      "war"
    ],
    [
      "s",
      "oun"
    ],
    [
      "be",
      "ar.</w>"
    ],
    [
      "s",
      "c"
    ],
    [
      "str",
      "ange</w>"
    ],
    [
      "fo",
      "x</w>"
    ],
    [
      "spar",
      "k"
    ],
    [
      "fi",
      "g"
    ],
    [
      "ta",
      "ble.</w>"
    ],
    [
      "at",
      "s</w>"
    ],
    [
      "\"",
      "G"
    ],
    [
      "slow",
      "ly</w>"
    ],
    [
      "par",
      "k,</w>"
    ],
    [
      "s",
      "choo"
    ],
    [
      "happ",
      "y,</w>"
    ],
    [
      "or",
      "ange</w>"
    ],
    [
      "p",
      "ati"
    ],
    [
      "wor",
      "k.</w>"
    ],
    [
      "\"T",
      "his</w>"
    ],
    [
      "be",
      "lie"
    ],
    [
      "it",
      ".\"</w>"
    ],
    [
      "acro",
      "ss</w>"
    ],
    [
      "po",
      "in"
    ],
    [
      "bla",
      "ck</w>"
    ],
    [
      "e",
      ",\"</w>"
    ],
    [
      "hea",
      "v"
    ],
    [
      "z",
      "y</w>"
    ],
    [
      "mo",
      "ve</w>"
    ],
    [
      "sa",
      "y,</w>"
    ],
    [
      "M",
      "ummy</w>"
    ],
    [
      "\"Mom",
      ",</w>"
    ],
    [
      "z",
      "e</w>"
    ],
    [
      "A",
      "my</w>"
    ],
    [
      "clo",
      "sed</w>"
    ],
    [
      "gra",
      "ss.</w>"
    ],
    [
      "cla",
      "pped</w>"
    ],
    [
      "ent",
      ",</w>"
    ],
    [
      "l",
      "s.</w>"
    ],
    [
      "w",
      "ee"
    ],
    [
      "ow",
      "n</w>"
    ],
    [
      "fini",
      "shed</w>"
    ],
    [
      "cover",
      "ed</w>"
    ],
    [
      "st",
      "ra"
    ],
    [
      "towar",
      "ds</w>"
    ],
    [
      "im",
      "ag"
    ],
    [
      "wh",
      "er"
    ],
    [
      "explor",
      "ing</w>"
    ],
    [
      "di",
      "sa"
    ],
    [
      "J",
      "u"
    ],
    [
      "gra",
      "ss</w>"
    ],
    [
      "M",
      "ary</w>"
    ],
    [
      "wo",
      "ke</w>"
    ],
    [
      "n",
      "y.</w>"
    ],
    [
      "sto",
      "p</w>"
    ],
    [
      "P",
      "e"
    ],
    [
      "m",
      "e.</w>"
    ],
    [
      "sm",
      "ar"
    ],
    [
      "K",
      "itt"
    ],
    [
      "sw",
      "im"
    ],
    [
      "fi",
      "sh"
    ],
    [
      "no",
      "w.</w>"
    ],
    [
      "gam",
      "e.</w>"
    ],
    [
      "ther",
      "e.</w>"
    ],
    [
      "bun",
      "ny</w>"
    ],
    [
      "c",
      "ked</w>"
    ],
    [
      "st",
      "er.</w>"
    ],
    [
      "flo",
      "or.</w>"
    ],
    [
      "gh",
      "t,</w>"
    ],
    [
      "d",
      "ang"
    ],
    [
      "enou",
      "gh</w>"
    ],
    [
      "om",
      ",</w>"
    ],
    [
      "k",
      "is"
    ],
    [
      "re",
      "lie"
    ],
    [
      "n",
      "s</w>"
    ],
    [
      "\"T",
      "hat</w>"
    ],
    [
      "t",
      "ed.</w>"
    ],
    [
      "any",
      "thing</w>"
    ],
    [
      "On",
      "</w>"
    ],
    [
      "sh",
      "ou"
    ],
    [
      "you",
      "n"
    ],
    [
      "’",
      "t</w>"
    ],
    [
      "perfec",
      "t</w>"
    ],
    [
      "fir",
      "st</w>"
    ],
    [
      "amaz",
      "ed</w>"
    ],
    [
      "na",
      "ugh"
    ],
    [
      "tur",
      "e</w>"
    ],
    [
      "li",
      "ght.</w>"
    ],
    [
      "c",
      "k"
    ],
    [
      "s",
      ",\"</w>"
    ],
    [
      "surpri",
      "sed</w>"
    ],
    [
      "an",
      "g</w>"
    ],
    [
      "c",
      "ir"
    ],
    [
      "M",
      "r"
    ],
    [
      "dro",
      "ve</w>"
    ],
    [
      "toge",
      "ther"
    ],
    [
      "le",
      ",</w>"
    ],
    [
      "sa",
      "d,</w>"
    ],
    [
      "wi",
      "th"
    ],
    [
      "rememb",
      "er</w>"
    ],
    [
      "st",
      "ed</w>"
    ],
    [
      "we",
      "ar</w>"
    ],
    [
      "vis",
      "it</w>"
    ],
    [
      "tin",
      "y</w>"
    ],
    [
      "wor",
      "k</w>"
    ],
    [
      "st",
      "ing</w>"
    ],
    [
      "ex",
      "pla"
    ],
    [
      "ne",
      "igh"
    ],
    [
      "s",
      "hel"
    ],
    [
      "jum",
      "p</w>"
    ],
    [
      "tr",
      "ying</w>"
    ],
    [
      "curi",
      "ous.</w>"
    ],
    [
      "p",
      "ing</w>"
    ],
    [
      "belie",
      "ve</w>"
    ],
    [
      "m",
      "il"
    ],
    [
      "p",
      "ac"
    ],
    [
      "smil",
      "ed,</w>"
    ],
    [
      "do",
      "w</w>"
    ],
    [
      "al",
      "on"
    ],
    [
      "p",
      "le</w>"
    ],
    [
      "ro",
      "bo"
    ],
    [
      "en",
      "ever</w>"
    ],
    [
      "color",
      "s</w>"
    ],
    [
      "carefu",
      "l.</w>"
    ],
    [
      "Ann",
      "a.</w>"
    ],
    [
      "smil",
      "es</w>"
    ],
    [
      "bo",
      "w</w>"
    ],
    [
      "sli",
      "de</w>"
    ],
    [
      "help",
      "ing</w>"
    ],
    [
      "\"H",
      "i"
    ],
    [
      "pe",
      "ac"
    ],
    [
      "do",
      "or.</w>"
    ],
    [
      "You",
      "'re</w>"
    ],
    [
      "hol",
      "e.</w>"
    ],
    [
      "mon",
      "ster</w>"
    ],
    [
      "wor",
      "ry,</w>"
    ],
    [
      "l",
      "l"
    ],
    [
      "ey",
      "es.</w>"
    ],
    [
      "s",
      "!\"</w>"
    ],
    [
      "less",
      "on</w>"
    ],
    [
      "himsel",
      "f</w>"
    ],
    [
      "wor",
      "ld.</w>"
    ],
    [
      "k",
      "ing.</w>"
    ],
    [
      "fro",
      "g</w>"
    ],
    [
      "pe",
      "t</w>"
    ],
    [
      "p",
      "ow"
    ],
    [
      "thre",
      "w</w>"
    ],
    [
      "f",
      "arm"
    ],
    [
      "si",
      "e</w>"
    ],
    [
      "c",
      "e.</w>"
    ],
    [
      "he",
      "d.</w>"
    ],
    [
      "am",
      "a</w>"
    ],
    [
      "G",
      "r"
    ],
    [
      "J",
      "en"
    ],
    [
      "thin",
      "ks</w>"
    ],
    [
      "stron",
      "g.</w>"
    ],
    [
      "s",
      "wa"
    ],
    [
      "sp",
      "id"
    ],
    [
      "ro",
      "lled</w>"
    ],
    [
      "v",
      "e,</w>"
    ],
    [
      "fa",
      "st.</w>"
    ],
    [
      "win",
      "dow"
    ],
    [
      "ea",
      "t.</w>"
    ],
    [
      "hand",
      "s.</w>"
    ],
    [
      "p",
      "e.</w>"
    ],
    [
      "ca",
      "ught</w>"
    ],
    [
      "pret",
      "end"
    ],
    [
      "foo",
      "d.</w>"
    ],
    [
      "te",
      "ddy</w>"
    ],
    [
      "str",
      "ang"
    ],
    [
      "youn",
      "g</w>"
    ],
    [
      "col",
      "our"
    ],
    [
      "L",
      "itt"
    ],
    [
      "Litt",
      "le</w>"
    ],
    [
      "fa",
      "ir"
    ],
    [
      "u",
      "s</w>"
    ],
    [
      "be",
      "ar"
    ],
    [
      "go",
      ".</w>"
    ],
    [
      "d",
      "u"
    ],
    [
      "bloc",
      "ks</w>"
    ],
    [
      "ch",
      "ick"
    ],
    [
      "p",
      "es</w>"
    ],
    [
      "feel",
      "s</w>"
    ],
    [
      "m",
      "igh"
    ],
    [
      "run",
      "s</w>"
    ],
    [
      "bro",
      "w"
    ],
    [
      "mi",
      "ght</w>"
    ],
    [
      "clo",
      "se</w>"
    ],
    [
      "de",
      "pend"
    ],
    [
      "picture",
      "s</w>"
    ],
    [
      "wi",
      "th.</w>"
    ],
    [
      "m",
      "y"
    ],
    [
      "g",
      "one.</w>"
    ],
    [
      "t",
      "wi"
    ],
    [
      "li",
      "f"
    ],
    [
      "m",
      "ee"
    ],
    [
      "n",
      "ing,</w>"
    ],
    [
      "arri",
      "ved</w>"
    ],
    [
      "e",
      "ventu"
    ],
    [
      "s",
      "y</w>"
    ],
    [
      "su",
      "dden"
    ],
    [
      "t",
      "’s</w>"
    ],
    [
      "ing",
      "s.</w>"
    ],
    [
      "it",
      "!</w>"
    ],
    [
      "fun",
      "ny</w>"
    ],
    [
      "u",
      "m</w>"
    ],
    [
      "pur",
      "ple</w>"
    ],
    [
      "surpri",
      "se</w>"
    ],
    [
      "gra",
      "te"
    ],
    [
      "car",
      "ro"
    ],
    [
      "fla",
      "sh"
    ],
    [
      "To",
      "ge"
    ],
    [
      "sun",
      "ny</w>"
    ],
    [
      "h",
      "and</w>"
    ],
    [
      "sig",
      "n</w>"
    ],
    [
      "nigh",
      "t,</w>"
    ],
    [
      "wel",
      "com"
    ],
    [
      "h",
      "oo"
    ],
    [
      "po",
      "li"
    ],
    [
      "har",
      "d.</w>"
    ],
    [
      "ba",
      "g</w>"
    ],
    [
      "him",
      ",</w>"
    ],
    [
      "Sam",
      ".</w>"
    ],
    [
      "mor",
      "al</w>"
    ],
    [
      "t",
      "!</w>"
    ],
    [
      "\"Wh",
      "y</w>"
    ],
    [
      "s",
      "ou"
    ],
    [
      "kitch",
      "en.</w>"
    ],
    [
      "dang",
      "er"
    ],
    [
      "g",
      "row"
    ],
    [
      "it",
      "?\"</w>"
    ],
    [
      "disa",
      "pp"
    ],
    [
      "hersel",
      "f.</w>"
    ],
    [
      "squirre",
      "l</w>"
    ],
    [
      "hou",
      "r"
    ],
    [
      "s",
      "?\"</w>"
    ],
    [
      "li",
      "t</w>"
    ],
    [
      "che",
      "er"
    ],
    [
      "st",
      "op"
    ],
    [
      "jo",
      "y.</w>"
    ],
    [
      "tre",
      "as"
    ],
    [
      "i",
      "es.</w>"
    ],
    [
      "sho",
      "es</w>"
    ],
    [
      "h",
      "and.</w>"
    ],
    [
      "s",
      "er"
    ],
    [
      "ange",
      "l</w>"
    ],
    [
      "do",
      "ct"
    ],
    [
      "R",
      "o"
    ],
    [
      "happ",
      "y!</w>"
    ],
    [
      "color",
      "ful</w>"
    ],
    [
      "mu",
      "st</w>"
    ],
    [
      "f",
      "ly.</w>"
    ],
    [
      "e",
      "-"
    ],
    [
      "a",
      "ke</w>"
    ],
    [
      "wonder",
      "ed</w>"
    ],
    [
      "explor",
      "e.</w>"
    ],
    [
      "e",
      "ver"
    ],
    [
      "an",
      "sw"
    ],
    [
      "pain",
      "t</w>"
    ],
    [
      "W",
      "i"
    ],
    [
      "The",
      "ir</w>"
    ],
    [
      "ta",
      "kes</w>"
    ],
    [
      "chil",
      "d</w>"
    ],
    [
      "p",
      "oo"
    ],
    [
      "la",
      "ug"
    ],
    [
      "tt",
      "er"
    ],
    [
      "lon",
      "ely</w>"
    ],
    [
      "re",
      "st</w>"
    ],
    [
      "prou",
      "d.</w>"
    ],
    [
      "hea",
      "d.</w>"
    ],
    [
      "cu",
      "shi"
    ],
    [
      "prince",
      "ss</w>"
    ],
    [
      "as",
      "ks.</w>"
    ],
    [
      "he",
      "d,</w>"
    ],
    [
      "N",
      "ow,</w>"
    ],
    [
      "lon",
      "g.</w>"
    ],
    [
      "jo",
      "in</w>"
    ],
    [
      "In",
      "side</w>"
    ],
    [
      "h",
      "ere</w>"
    ],
    [
      "hid",
      "e</w>"
    ],
    [
      "\"",
      "Su"
    ],
    [
      "luff",
      "y</w>"
    ],
    [
      "ba",
      "d.</w>"
    ],
    [
      "boo",
      "k.</w>"
    ],
    [
      "scar",
      "ed,</w>"
    ],
    [
      "ho",
      "t</w>"
    ],
    [
      "l",
      "un"
    ],
    [
      "fu",
      "l"
    ],
    [
      "le",
      "ft</w>"
    ],
    [
      "i",
      "ve</w>"
    ]
  ],
  "vocab": {
    "!": 4,
    "!\"</w>": 5,
    "!</w>": 6,
    "!”</w>": 7,
    "\"": 8,
    "\".</w>": 9,
    "\"</w>": 10,
    "\"B": 11,
    "\"Can</w>": 12,
    "\"D": 13,
    "\"Don't</w>": 14,
    "\"G": 15,
    "\"H": 16,
    "\"Hel": 17,
    "\"Hello": 18,
    "\"Hello,</w>": 19,
    "\"Hi": 20,
    "\"I'm</w>": 21,
    "\"I</w>": 22,
    "\"It's</w>": 23,
    "\"It</w>": 24,
    "\"Let's</w>": 25,
    "\"Loo": 26,
    "\"Look,</w>": 27,
    "\"M": 28,
    "\"Maybe</w>": 29,
    "\"Mom": 30,
    "\"Mom,</w>": 31,
    "\"N": 32,
    "\"No,</w>": 33,
    "\"O": 34,
    "\"S": 35,
    "\"Su": 36,
    "\"T": 37,
    "\"Thank</w>": 38,
    "\"That's</w>": 39,
    "\"That</w>": 40,
    "\"This</w>": 41,
    "\"W": 42,
    "\"We</w>": 43,
    "\"Wh": 44,
    "\"What</w>": 45,
    "\"Why</w>": 46,
    "\"Wow,</w>": 47,
    "\"Y": 48,
    "\"Yes,</w>": 49,
    "\"You</w>": 50,
    "$": 51,
    "'": 52,
    "'re</w>": 53,
    "'s</w>": 54,
    "'t</w>": 55,
    ",": 56,
    ",\"</w>": 57,
    ",</w>": 58,
    "-": 59,
    "-</w>": 60,
    ".": 61,
    ".\"</w>": 62,
    ".</w>": 63,
    ".”</w>": 64,
    "0": 65,
    "1": 66,
    "2": 67,
    "3": 68,
    "5": 69,
    "8": 70,
    ":</w>": 71,
    ";": 72,
    "</w>": 73,
    "<|endoftext|></w>": 74,
    "?": 75,
    "?\"</w>": 76,
    "?</w>": 77,
    "A": 78,
    "A</w>": 79,
    "After</w>": 80,
    "All</w>": 81,
    "Amy</w>": 82,
    "An": 83,
    "And</w>": 84,
    "Ann": 85,
    "Anna.</w>": 86,
    "Anna</w>": 87,
    "As</w>": 88,
    "At</w>": 89,
    "B": 90,
    "Ben": 91,
    "Ben.</w>": 92,
    "Ben</w>": 93,
    "Benny</w>": 94,
    "Bo": 95,
    "Bob</w>": 96,
    "But</w>": 97,
    "C": 98,
    "Can</w>": 99,
    "Come</w>": 100,
    "D": 101,
    "Da": 102,
    "Dad</w>": 103,
    "Daddy</w>": 104,
    "Dais": 105,
    "Daisy</w>": 106,
    "Do</w>": 107,
    "E": 108,
    "Em": 109,
    "Every": 110,
    "Every</w>": 111,
    "Everyone</w>": 112,
    "F": 113,
    "Fin": 114,
    "Finally,</w>": 115,
    "From</w>": 116,
    "G": 117,
    "Gr": 118,
    "H": 119,
    "He</w>": 120,
    "Her</w>": 121,
    "His</w>": 122,
    "I": 123,
    "I'": 124,
    "I'm</w>": 125,
    "I</w>": 126,
    "In": 127,
    "In</w>": 128,
    "Inside</w>": 129,
    "It's</w>": 130,
    "It</w>": 131,
    "J": 132,
    "Jac": 133,
    "Jack</w>": 134,
    "Jane</w>": 135,
    "Jen": 136,
    "Jill</w>": 137,
    "Jim": 138,
    "Jimmy</w>": 139,
    "Jo": 140,
    "Joe</w>": 141,
    "Joh": 142,
    "John</w>": 143,
    "Ju": 144,
    "K": 145,
    "Kitt": 146,
    "L": 147,
    "Le": 148,
    "Let's</w>": 149,
    "Lil": 150,
    "Lila</w>": 151,
    "Lily's</w>": 152,
    "Lily,</w>": 153,
    "Lily.</w>": 154,
    "Lily</w>": 155,
    "Little</w>": 156,
    "Loo": 157,
    "Luc": 158,
    "Lucy</w>": 159,
    "M": 160,
    "Ma": 161,
    "Mary</w>": 162,
    "Max</w>": 163,
    "Maybe</w>": 164,
    "Mi": 165,
    "Mia</w>": 166,
    "Mol": 167,
    "Molly</w>": 168,
    "Mom": 169,
    "Mom</w>": 170,
    "Mommy</w>": 171,
    "Mr": 172,
    "Mummy</w>": 173,
    "N": 174,
    "Now,</w>": 175,
    "Now</w>": 176,
    "O": 177,
    "On": 178,
    "On</w>": 179,
    "Once</w>": 180,
    "One</w>": 181,
    "P": 182,
    "Pe": 183,
    "Q": 184,
    "R": 185,
    "Ro": 186,
    "S": 187,
    "Sally</w>": 188,
    "Sam": 189,
    "Sam.</w>": 190,
    "Sam</w>": 191,
    "Sara": 192,
    "Sara</w>": 193,
    "Sarah</w>": 194,
    "She</w>": 195,
    "So": 196,
    "So,</w>": 197,
    "So</w>": 198,
    "Soon,</w>": 199,
    "Spo": 200,
    "Spot</w>": 201,
    "Su": 202,
    "Sudden": 203,
    "Suddenly,</w>": 204,
    "Sue</w>": 205,
    "T": 206,
    "Th": 207,
    "Thank</w>": 208,
    "That</w>": 209,
    "The": 210,
    "The</w>": 211,
    "Their</w>": 212,
    "Then,</w>": 213,
    "Then</w>": 214,
    "There</w>": 215,
    "They</w>": 216,
    "This</w>": 217,
    "Tim": 218,
    "Tim.</w>": 219,
    "Tim</w>": 220,
    "Timm": 221,
    "Timmy's</w>": 222,
    "Timmy.</w>": 223,
    "Timmy</w>": 224,
    "To": 225,
    "Toge": 226,
    "Tom": 227,
    "Tom.</w>": 228,
    "Tom</w>": 229,
    "Tommy</w>": 230,
    "U": 231,
    "V": 232,
    "W": 233,
    "We</w>": 234,
    "Wh": 235,
    "What</w>": 236,
    "When</w>": 237,
    "Wi": 238,
    "X": 239,
    "Y": 240,
    "You": 241,
    "You're</w>": 242,
    "You</w>": 243,
    "Z": 244,
    "a": 245,
    "a,</w>": 246,
    "a.</w>": 247,
    "a</w>": 248,
    "ab": 249,
    "able</w>": 250,
    "about</w>": 251,
    "aby</w>": 252,
    "ac": 253,
    "ach": 254,
    "ach</w>": 255,
    "ached</w>": 256,
    "ack</w>": 257,
    "acro": 258,
    "across</w>": 259,
    "ad": 260,
    "advent": 261,
    "adventure": 262,
    "adventure.</w>": 263,
    "af": 264,
    "after</w>": 265,
    "ag": 266,
    "again": 267,
    "again.</w>": 268,
    "again</w>": 269,
    "agre": 270,
    "ake</w>": 271,
    "al": 272,
    "al.</w>": 273,
    "al</w>": 274,
    "all</w>": 275,
    "ally,</w>": 276,
    "ally</w>": 277,
    "alon": 278,
    "also</w>": 279,
    "always</w>": 280,
    "am": 281,
    "am</w>": 282,
    "ama": 283,
    "ama</w>": 284,
    "amaz": 285,
    "amazed</w>": 286,
    "amazing</w>": 287,
    "ame</w>": 288,
    "an": 289,
    "an.</w>": 290,
    "an</w>": 291,
    "anc": 292,
    "ance</w>": 293,
    "and": 294,
    "and.</w>": 295,
    "and</w>": 296,
    "ane</w>": 297,
    "ang": 298,
    "ang</w>": 299,
    "ange": 300,
    "ange</w>": 301,
    "angel</w>": 302,
    "angry.</w>": 303,
    "angry</w>": 304,
    "anim": 305,
    "animal": 306,
    "animals.</w>": 307,
    "animals</w>": 308,
    "ank</w>": 309,
    "another</w>": 310,
    "answ": 311,
    "ant</w>": 312,
    "any": 313,
    "any</w>": 314,
    "anymore.</w>": 315,
    "anything</w>": 316,
    "app": 317,
    "ar": 318,
    "ar.</w>": 319,
    "ar</w>": 320,
    "ard": 321,
    "ard.</w>": 322,
    "ard</w>": 323,
    "are</w>": 324,
    "arm": 325,
    "around,</w>": 326,
    "around.</w>": 327,
    "around</w>": 328,
    "arri": 329,
    "arrived</w>": 330,
    "ary</w>": 331,
    "as": 332,
    "as</w>": 333,
    "ask</w>": 334,
    "asked,</w>": 335,
    "asked.</w>": 336,
    "asked</w>": 337,
    "asks.</w>": 338,
    "ast</w>": 339,
    "at": 340,
    "at.</w>": 341,
    "at</w>": 342,
    "ate</w>": 343,
    "ati": 344,
    "ats</w>": 345,
    "att": 346,
    "awa": 347,
    "away,</w>": 348,
    "away.</w>": 349,
    "away</w>": 350,
    "b": 351,
    "b.</w>": 352,
    "b</w>": 353,
    "ba": 354,
    "baby</w>": 355,
    "bac": 356,
    "back": 357,
    "back.</w>": 358,
    "back</w>": 359,
    "bad.</w>": 360,
    "bad</w>": 361,
    "bag</w>": 362,
    "bal": 363,
    "ball.</w>": 364,
    "ball</w>": 365,
    "ballo": 366,
    "balloon</w>": 367,
    "bar": 368,
    "bb": 369,
    "bbed</w>": 370,
    "be": 371,
    "be</w>": 372,
    "bea": 373,
    "bear": 374,
    "bear.</w>": 375,
    "bear</w>": 376,
    "beauti": 377,
    "beautiful</w>": 378,
    "became</w>": 379,
    "because</w>": 380,
    "bed.</w>": 381,
    "bed</w>": 382,
    "bee": 383,
    "been</w>": 384,
    "befor": 385,
    "before.</w>": 386,
    "before</w>": 387,
    "beg": 388,
    "began</w>": 389,
    "beh": 390,
    "behind</w>": 391,
    "being</w>": 392,
    "belie": 393,
    "believe</w>": 394,
    "ber": 395,
    "best</w>": 396,
    "bett": 397,
    "better.</w>": 398,
    "better</w>": 399,
    "bi": 400,
    "big": 401,
    "big,</w>": 402,
    "big</w>": 403,
    "bigger</w>": 404,
    "bir": 405,
    "bird": 406,
    "bird.</w>": 407,
    "bird</w>": 408,
    "birds</w>": 409,
    "bit</w>": 410,
    "bl": 411,
    "bla": 412,
    "black</w>": 413,
    "blan": 414,
    "ble": 415,
    "ble.</w>": 416,
    "ble</w>": 417,
    "blo": 418,
    "bloc": 419,
    "blocks</w>": 420,
    "blu": 421,
    "blue</w>": 422,
    "bo": 423,
    "boat</w>": 424,
    "boo": 425,
    "book.</w>": 426,
    "book</w>": 427,
    "bor": 428,
    "both</w>": 429,
    "bow": 430,
    "bow</w>": 431,
    "box.</w>": 432,
    "box</w>": 433,
    "boy.</w>": 434,
    "boy</w>": 435,
    "br": 436,
    "bra": 437,
    "bran": 438,
    "brave</w>": 439,
    "brea": 440,
    "bri": 441,
    "bright</w>": 442,
    "bro": 443,
    "brok": 444,
    "broken</w>": 445,
    "brother</w>": 446,
    "brou": 447,
    "brought</w>": 448,
    "brow": 449,
    "bu": 450,
    "buc": 451,
    "bug</w>": 452,
    "buil": 453,
    "bun": 454,
    "bunny</w>": 455,
    "but</w>": 456,
    "butt": 457,
    "butter": 458,
    "butterfly</w>": 459,
    "buy</w>": 460,
    "by": 461,
    "by</w>": 462,
    "c": 463,
    "ca": 464,
    "cake</w>": 465,
    "cal": 466,
    "called</w>": 467,
    "came</w>": 468,
    "can": 469,
    "can't</w>": 470,
    "can</w>": 471,
    "cand": 472,
    "car": 473,
    "car.</w>": 474,
    "car</w>": 475,
    "care": 476,
    "care</w>": 477,
    "carefu": 478,
    "careful.</w>": 479,
    "careful</w>": 480,
    "carefully</w>": 481,
    "carro": 482,
    "cars</w>": 483,
    "cast": 484,
    "cat": 485,
    "cat</w>": 486,
    "catch</w>": 487,
    "caught</w>": 488,
    "ce": 489,
    "ce.</w>": 490,
    "ce</w>": 491,
    "ch": 492,
    "ch.</w>": 493,
    "ch</w>": 494,
    "cha": 495,
    "che": 496,
    "ched</w>": 497,
    "cheer": 498,
    "chick": 499,
    "chil": 500,
    "child</w>": 501,
    "childr": 502,
    "children</w>": 503,
    "ching</w>": 504,
    "cho": 505,
    "choo": 506,
    "cir": 507,
    "ck": 508,
    "ck</w>": 509,
    "cked</w>": 510,
    "cla": 511,
    "clapped</w>": 512,
    "cle": 513,
    "clean</w>": 514,
    "cli": 515,
    "climb": 516,
    "climb</w>": 517,
    "climbed</w>": 518,
    "clo": 519,
    "clos": 520,
    "close</w>": 521,
    "closed</w>": 522,
    "closer</w>": 523,
    "clothe": 524,
    "clou": 525,
    "co": 526,
    "col": 527,
    "cold</w>": 528,
    "color": 529,
    "colorful</w>": 530,
    "colors</w>": 531,
    "colour": 532,
    "com": 533,
    "come</w>": 534,
    "coming</w>": 535,
    "con": 536,
    "continu": 537,
    "continued</w>": 538,
    "coo": 539,
    "cook": 540,
    "cor": 541,
    "cou": 542,
    "could</w>": 543,
    "couldn't</w>": 544,
    "coun": 545,
    "cover": 546,
    "covered</w>": 547,
    "cr": 548,
    "cra": 549,
    "craw": 550,
    "cray": 551,
    "cre": 552,
    "cream": 553,
    "cri": 554,
    "cry.</w>": 555,
    "ct": 556,
    "cu": 557,
    "curi": 558,
    "curious.</w>": 559,
    "curious</w>": 560,
    "cushi": 561,
    "d": 562,
    "d!</w>": 563,
    "d,</w>": 564,
    "d.</w>": 565,
    "d</w>": 566,
    "da": 567,
    "dad.</w>": 568,
    "dad</w>": 569,
    "danc": 570,
    "dang": 571,
    "danger": 572,
    "dar": 573,
    "dark</w>": 574,
    "day,</w>": 575,
    "day.</w>": 576,
    "day</w>": 577,
    "dd": 578,
    "ddy</w>": 579,
    "de": 580,
    "de.</w>": 581,
    "de</w>": 582,
    "dec": 583,
    "decid": 584,
    "decided</w>": 585,
    "ded</w>": 586,
    "deep</w>": 587,
    "delic": 588,
    "delicious</w>": 589,
    "depend": 590,
    "der": 591,
    "der</w>": 592,
    "di": 593,
    "did": 594,
    "did</w>": 595,
    "didn't</w>": 596,
    "diff": 597,
    "differ": 598,
    "different</w>": 599,
    "din": 600,
    "ding</w>": 601,
    "dinn": 602,
    "dir": 603,
    "dis": 604,
    "disa": 605,
    "disapp": 606,
    "do": 607,
    "do.</w>": 608,
    "do</w>": 609,
    "doct": 610,
    "does</w>": 611,
    "dog.</w>": 612,
    "dog</w>": 613,
    "dol": 614,
    "doll.</w>": 615,
    "doll</w>": 616,
    "don't</w>": 617,
    "door.</w>": 618,
    "door</w>": 619,
    "dow": 620,
    "dow</w>": 621,
    "down.</w>": 622,
    "down</w>": 623,
    "dr": 624,
    "dra": 625,
    "dre": 626,
    "dream": 627,
    "dress</w>": 628,
    "dri": 629,
    "dro": 630,
    "drove</w>": 631,
    "ds.</w>": 632,
    "ds</w>": 633,
    "du": 634,
    "dy</w>": 635,
    "e": 636,
    "e!\"</w>": 637,
    "e!</w>": 638,
    "e,\"</w>": 639,
    "e,</w>": 640,
    "e-": 641,
    "e.\"</w>": 642,
    "e.</w>": 643,
    "e</w>": 644,
    "e?\"</w>": 645,
    "ea": 646,
    "eac": 647,
    "each</w>": 648,
    "ear": 649,
    "ear</w>": 650,
    "ears</w>": 651,
    "eat": 652,
    "eat.</w>": 653,
    "eat</w>": 654,
    "ec": 655,
    "ed": 656,
    "ed!</w>": 657,
    "ed,</w>": 658,
    "ed.</w>": 659,
    "ed</w>": 660,
    "ee": 661,
    "eep</w>": 662,
    "el": 663,
    "ele": 664,
    "ely</w>": 665,
    "em": 666,
    "en": 667,
    "en,</w>": 668,
    "en.</w>": 669,
    "en</w>": 670,
    "end": 671,
    "end.</w>": 672,
    "end</w>": 673,
    "ened</w>": 674,
    "enever</w>": 675,
    "enjo": 676,
    "enjoyed</w>": 677,
    "enou": 678,
    "enough</w>": 679,
    "ent": 680,
    "ent,</w>": 681,
    "ent.</w>": 682,
    "ent</w>": 683,
    "ents</w>": 684,
    "er": 685,
    "er,</w>": 686,
    "er.</w>": 687,
    "er</w>": 688,
    "ere</w>": 689,
    "ered</w>": 690,
    "ers.</w>": 691,
    "ers</w>": 692,
    "es": 693,
    "es,</w>": 694,
    "es.</w>": 695,
    "es</w>": 696,
    "et.</w>": 697,
    "et</w>": 698,
    "even</w>": 699,
    "eventu": 700,
    "ever": 701,
    "ever</w>": 702,
    "every": 703,
    "every</w>": 704,
    "everyone</w>": 705,
    "everything</w>": 706,
    "ex": 707,
    "exc": 708,
    "excit": 709,
    "excited!</w>": 710,
    "excited.</w>": 711,
    "excited</w>": 712,
    "expla": 713,
    "explor": 714,
    "explore.</w>": 715,
    "explore</w>": 716,
    "exploring</w>": 717,
    "ext": 718,
    "ext</w>": 719,
    "ey": 720,
    "eyes.</w>": 721,
    "eyes</w>": 722,
    "f": 723,
    "f.</w>": 724,
    "f</w>": 725,
    "fa": 726,
    "fac": 727,
    "face.</w>": 728,
    "face</w>": 729,
    "fair": 730,
    "fam": 731,
    "family.</w>": 732,
    "family</w>": 733,
    "far</w>": 734,
    "farm": 735,
    "fast.</w>": 736,
    "fast</w>": 737,
    "fav": 738,
    "favor": 739,
    "favorite</w>": 740,
    "fe": 741,
    "fec": 742,
    "fee": 743,
    "feel": 744,
    "feel</w>": 745,
    "feeling</w>": 746,
    "feels</w>": 747,
    "fel": 748,
    "fell</w>": 749,
    "felt</w>": 750,
    "few</w>": 751,
    "ff": 752,
    "fi": 753,
    "fig": 754,
    "fil": 755,
    "filled</w>": 756,
    "fin": 757,
    "finally</w>": 758,
    "find</w>": 759,
    "fini": 760,
    "finished</w>": 761,
    "fir": 762,
    "fire": 763,
    "first</w>": 764,
    "fish": 765,
    "fish.</w>": 766,
    "fish</w>": 767,
    "fix</w>": 768,
    "fl": 769,
    "fla": 770,
    "flash": 771,
    "flew</w>": 772,
    "flo": 773,
    "floor.</w>": 774,
    "flow": 775,
    "flower</w>": 776,
    "flowers</w>": 777,
    "fly.</w>": 778,
    "fly</w>": 779,
    "flying</w>": 780,
    "fo": 781,
    "fol": 782,
    "follow": 783,
    "followed</w>": 784,
    "foo": 785,
    "food.</w>": 786,
    "food</w>": 787,
    "for": 788,
    "for</w>": 789,
    "fore": 790,
    "forest.</w>": 791,
    "forest</w>": 792,
    "forgot</w>": 793,
    "found</w>": 794,
    "fox</w>": 795,
    "fr": 796,
    "fre": 797,
    "fri": 798,
    "friend": 799,
    "friend,</w>": 800,
    "friend.</w>": 801,
    "friend</w>": 802,
    "friendly</w>": 803,
    "friends,</w>": 804,
    "friends.</w>": 805,
    "friends</w>": 806,
    "fro": 807,
    "frog</w>": 808,
    "from</w>": 809,
    "fru": 810,
    "ft</w>": 811,
    "fu": 812,
    "ful": 813,
    "ful.</w>": 814,
    "ful</w>": 815,
    "full</w>": 816,
    "fun": 817,
    "fun.</w>": 818,
    "fun</w>": 819,
    "funny</w>": 820,
    "fur": 821,
    "g": 822,
    "g,</w>": 823,
    "g.</w>": 824,
    "g</w>": 825,
    "ga": 826,
    "gam": 827,
    "game.</w>": 828,
    "game</w>": 829,
    "gard": 830,
    "garden.</w>": 831,
    "garden</w>": 832,
    "gave</w>": 833,
    "ge": 834,
    "ge.</w>": 835,
    "ge</w>": 836,
    "ged</w>": 837,
    "gent": 838,
    "ger</w>": 839,
    "get</w>": 840,
    "getting</w>": 841,
    "gg": 842,
    "gh": 843,
    "gh</w>": 844,
    "ght": 845,
    "ght,</w>": 846,
    "ght.</w>": 847,
    "ght</w>": 848,
    "gi": 849,
    "gir": 850,
    "girl.</w>": 851,
    "girl</w>": 852,
    "give</w>": 853,
    "gla": 854,
    "glad</w>": 855,
    "go": 856,
    "go.</w>": 857,
    "go</w>": 858,
    "going</w>": 859,
    "gone.</w>": 860,
    "goo": 861,
    "good": 862,
    "good</w>": 863,
    "goodby": 864,
    "goodbye</w>": 865,
    "got</w>": 866,
    "gr": 867,
    "gra": 868,
    "grabbed</w>": 869,
    "grand": 870,
    "grass.</w>": 871,
    "grass</w>": 872,
    "grate": 873,
    "gre": 874,
    "great</w>": 875,
    "green</w>": 876,
    "ground.</w>": 877,
    "ground</w>": 878,
    "grow": 879,
    "gs.</w>": 880,
    "gs</w>": 881,
    "gu": 882,
    "h": 883,
    "h</w>": 884,
    "ha": 885,
    "had</w>": 886,
    "hand": 887,
    "hand.</w>": 888,
    "hand</w>": 889,
    "hands.</w>": 890,
    "hands</w>": 891,
    "happ": 892,
    "happen": 893,
    "happened.</w>": 894,
    "happily</w>": 895,
    "happy!</w>": 896,
    "happy,</w>": 897,
    "happy.</w>": 898,
    "happy</w>": 899,
    "har": 900,
    "hard.</w>": 901,
    "hard</w>": 902,
    "has</w>": 903,
    "hat's</w>": 904,
    "hat</w>": 905,
    "have</w>": 906,
    "having</w>": 907,
    "he": 908,
    "he</w>": 909,
    "hea": 910,
    "head.</w>": 911,
    "head</w>": 912,
    "hear": 913,
    "hear</w>": 914,
    "heard</w>": 915,
    "heav": 916,
    "hed,</w>": 917,
    "hed.</w>": 918,
    "hel": 919,
    "held</w>": 920,
    "help": 921,
    "help.</w>": 922,
    "help</w>": 923,
    "helped</w>": 924,
    "helping</w>": 925,
    "her": 926,
    "her.</w>": 927,
    "her</w>": 928,
    "here</w>": 929,
    "hersel": 930,
    "herself.</w>": 931,
    "hi": 932,
    "hid": 933,
    "hide</w>": 934,
    "high": 935,
    "high</w>": 936,
    "him": 937,
    "him,</w>": 938,
    "him.</w>": 939,
    "him</w>": 940,
    "himsel": 941,
    "himself</w>": 942,
    "his</w>": 943,
    "ho": 944,
    "hol": 945,
    "hole.</w>": 946,
    "hole</w>": 947,
    "hom": 948,
    "home,</w>": 949,
    "home.</w>": 950,
    "home</w>": 951,
    "hoo": 952,
    "hopped</w>": 953,
    "hor": 954,
    "hot</w>": 955,
    "hou": 956,
    "hour": 957,
    "house.</w>": 958,
    "house</w>": 959,
    "how</w>": 960,
    "hug": 961,
    "hug.</w>": 962,
    "hug</w>": 963,
    "hugged</w>": 964,
    "hun": 965,
    "hur": 966,
    "hurt</w>": 967,
    "i": 968,
    "ic": 969,
    "ice.</w>": 970,
    "ice</w>": 971,
    "ick": 972,
    "id": 973,
    "id</w>": 974,
    "idea": 975,
    "idea.</w>": 976,
    "ie": 977,
    "ie</w>": 978,
    "ies.</w>": 979,
    "ies</w>": 980,
    "if</w>": 981,
    "ig": 982,
    "igh": 983,
    "il": 984,
    "il.</w>": 985,
    "il</w>": 986,
    "ill.</w>": 987,
    "ill</w>": 988,
    "illy</w>": 989,
    "ily.</w>": 990,
    "ily</w>": 991,
    "im": 992,
    "im</w>": 993,
    "imag": 994,
    "imp": 995,
    "import": 996,
    "important</w>": 997,
    "in": 998,
    "in.</w>": 999,
    "in</w>": 1000,
    "ind</w>": 1001,
    "ine</w>": 1002,
    "ined</w>": 1003,
    "ing": 1004,
    "ing,</w>": 1005,
    "ing.</w>": 1006,
    "ing</w>": 1007,
    "ings.</w>": 1008,
    "ings</w>": 1009,
    "ink</w>": 1010,
    "inside.</w>": 1011,
    "inside</w>": 1012,
    "into</w>": 1013,
    "ious</w>": 1014,
    "ir": 1015,
    "ir.</w>": 1016,
    "ir</w>": 1017,
    "ired</w>": 1018,
    "irre": 1019,
    "is": 1020,
    "is</w>": 1021,
    "ised</w>": 1022,
    "it": 1023,
    "it!</w>": 1024,
    "it's</w>": 1025,
    "it,</w>": 1026,
    "it.\"</w>": 1027,
    "it.</w>": 1028,
    "it</w>": 1029,
    "it?\"</w>": 1030,
    "ite</w>": 1031,
    "its</w>": 1032,
    "itt": 1033,
    "ive</w>": 1034,
    "j": 1035,
    "jo": 1036,
    "join</w>": 1037,
    "joy.</w>": 1038,
    "ju": 1039,
    "jum": 1040,
    "jump</w>": 1041,
    "jumped</w>": 1042,
    "just</w>": 1043,
    "k": 1044,
    "k,</w>": 1045,
    "k.</w>": 1046,
    "k</w>": 1047,
    "ka": 1048,
    "ke": 1049,
    "ke.</w>": 1050,
    "ke</w>": 1051,
    "ked,</w>": 1052,
    "ked.</w>": 1053,
    "ked</w>": 1054,
    "keep</w>": 1055,
    "kept</w>": 1056,
    "kes</w>": 1057,
    "ket.</w>": 1058,
    "ket</w>": 1059,
    "kid": 1060,
    "kids</w>": 1061,
    "kin": 1062,
    "kind</w>": 1063,
    "king.</w>": 1064,
    "king</w>": 1065,
    "kis": 1066,
    "kit": 1067,
    "kitch": 1068,
    "kitchen.</w>": 1069,
    "kitt": 1070,
    "kne": 1071,
    "knew</w>": 1072,
    "kno": 1073,
    "know": 1074,
    "know</w>": 1075,
    "ks.</w>": 1076,
    "ks</w>": 1077,
    "l": 1078,
    "l,</w>": 1079,
    "l.</w>": 1080,
    "l</w>": 1081,
    "la": 1082,
    "lady</w>": 1083,
    "lar</w>": 1084,
    "laug": 1085,
    "laugh": 1086,
    "laughed</w>": 1087,
    "ld": 1088,
    "ld.</w>": 1089,
    "ld</w>": 1090,
    "ldn't</w>": 1091,
    "le": 1092,
    "le,</w>": 1093,
    "le.</w>": 1094,
    "le</w>": 1095,
    "lea": 1096,
    "lear": 1097,
    "learn</w>": 1098,
    "learned</w>": 1099,
    "leas": 1100,
    "leaves</w>": 1101,
    "led</w>": 1102,
    "lee": 1103,
    "left</w>": 1104,
    "les.</w>": 1105,
    "les</w>": 1106,
    "less": 1107,
    "lesson</w>": 1108,
    "let's</w>": 1109,
    "let</w>": 1110,
    "lew</w>": 1111,
    "li": 1112,
    "lic": 1113,
    "lie": 1114,
    "lif": 1115,
    "light.</w>": 1116,
    "light</w>": 1117,
    "like</w>": 1118,
    "liked</w>": 1119,
    "likes</w>": 1120,
    "ling</w>": 1121,
    "list": 1122,
    "listen</w>": 1123,
    "listened</w>": 1124,
    "lit</w>": 1125,
    "little</w>": 1126,
    "lived</w>": 1127,
    "ll": 1128,
    "ll</w>": 1129,
    "lly</w>": 1130,
    "lo": 1131,
    "lon": 1132,
    "lonely</w>": 1133,
    "long.</w>": 1134,
    "long</w>": 1135,
    "longer</w>": 1136,
    "loo": 1137,
    "look</w>": 1138,
    "looked</w>": 1139,
    "looking</w>": 1140,
    "looks</w>": 1141,
    "lost</w>": 1142,
    "lot</w>": 1143,
    "lots</w>": 1144,
    "lou": 1145,
    "loud</w>": 1146,
    "love</w>": 1147,
    "loved</w>": 1148,
    "low": 1149,
    "low</w>": 1150,
    "ls.</w>": 1151,
    "ls</w>": 1152,
    "lu": 1153,
    "luff": 1154,
    "luffy</w>": 1155,
    "lun": 1156,
    "ly,</w>": 1157,
    "ly.</w>": 1158,
    "ly</w>": 1159,
    "m": 1160,
    "m.</w>": 1161,
    "m</w>": 1162,
    "ma": 1163,
    "ma</w>": 1164,
    "made</w>": 1165,
    "mag": 1166,
    "magic": 1167,
    "magical</w>": 1168,
    "make</w>": 1169,
    "makes</w>": 1170,
    "making</w>": 1171,
    "man": 1172,
    "man.</w>": 1173,
    "man</w>": 1174,
    "many</w>": 1175,
    "mar": 1176,
    "mb": 1177,
    "me": 1178,
    "me.</w>": 1179,
    "me</w>": 1180,
    "mean</w>": 1181,
    "mee": 1182,
    "memb": 1183,
    "met</w>": 1184,
    "mi": 1185,
    "migh": 1186,
    "might</w>": 1187,
    "mil": 1188,
    "min": 1189,
    "mir": 1190,
    "mis": 1191,
    "mo": 1192,
    "mom": 1193,
    "mom,</w>": 1194,
    "mom.</w>": 1195,
    "mom</w>": 1196,
    "mommy</w>": 1197,
    "mon": 1198,
    "monster</w>": 1199,
    "mor": 1200,
    "moral</w>": 1201,
    "more.</w>": 1202,
    "more</w>": 1203,
    "most</w>": 1204,
    "mou": 1205,
    "mouse</w>": 1206,
    "move</w>": 1207,
    "mu": 1208,
    "much.</w>": 1209,
    "much</w>": 1210,
    "mum</w>": 1211,
    "must</w>": 1212,
    "my": 1213,
    "my,</w>": 1214,
    "my.</w>": 1215,
    "my</w>": 1216,
    "n": 1217,
    "n't</w>": 1218,
    "n,</w>": 1219,
    "n.</w>": 1220,
    "n</w>": 1221,
    "na": 1222,
    "nam": 1223,
    "name</w>": 1224,
    "named</w>": 1225,
    "naugh": 1226,
    "ne": 1227,
    "near</w>": 1228,
    "ned</w>": 1229,
    "need": 1230,
    "need</w>": 1231,
    "needed</w>": 1232,
    "neigh": 1233,
    "never</w>": 1234,
    "new</w>": 1235,
    "next</w>": 1236,
    "ni": 1237,
    "nic": 1238,
    "nice.</w>": 1239,
    "nice</w>": 1240,
    "nigh": 1241,
    "night,</w>": 1242,
    "ning,</w>": 1243,
    "ning</w>": 1244,
    "no": 1245,
    "no</w>": 1246,
    "nodd": 1247,
    "nodded</w>": 1248,
    "noi": 1249,
    "nois": 1250,
    "noise.</w>": 1251,
    "noise</w>": 1252,
    "not</w>": 1253,
    "noticed</w>": 1254,
    "now": 1255,
    "now.</w>": 1256,
    "now</w>": 1257,
    "ns</w>": 1258,
    "ny.</w>": 1259,
    "ny</w>": 1260,
    "o": 1261,
    "o,</w>": 1262,
    "o</w>": 1263,
    "of": 1264,
    "of</w>": 1265,
    "off": 1266,
    "off</w>": 1267,
    "oft": 1268,
    "oka": 1269,
    "ol": 1270,
    "old</w>": 1271,
    "om": 1272,
    "om,</w>": 1273,
    "om.</w>": 1274,
    "om</w>": 1275,
    "ome</w>": 1276,
    "on": 1277,
    "on't</w>": 1278,
    "on,</w>": 1279,
    "on.</w>": 1280,
    "on</w>": 1281,
    "one,</w>": 1282,
    "one.</w>": 1283,
    "one</w>": 1284,
    "only</w>": 1285,
    "ons.</w>": 1286,
    "ons</w>": 1287,
    "oo": 1288,
    "ood</w>": 1289,
    "op": 1290,
    "open</w>": 1291,
    "opened</w>": 1292,
    "or": 1293,
    "or.</w>": 1294,
    "or</w>": 1295,
    "orange</w>": 1296,
    "ort": 1297,
    "other": 1298,
    "other.</w>": 1299,
    "other</w>": 1300,
    "ou": 1301,
    "ould</w>": 1302,
    "oun": 1303,
    "ound,</w>": 1304,
    "ound.</w>": 1305,
    "ound</w>": 1306,
    "our": 1307,
    "our</w>": 1308,
    "ous.</w>": 1309,
    "ous</w>": 1310,
    "out": 1311,
    "out.</w>": 1312,
    "out</w>": 1313,
    "outside.</w>": 1314,
    "outside</w>": 1315,
    "over</w>": 1316,
    "ow": 1317,
    "ow,</w>": 1318,
    "ow</w>": 1319,
    "own</w>": 1320,
    "p": 1321,
    "p,</w>": 1322,
    "p.</w>": 1323,
    "p</w>": 1324,
    "pa": 1325,
    "pac": 1326,
    "pain": 1327,
    "paint</w>": 1328,
    "pap": 1329,
    "par": 1330,
    "parents</w>": 1331,
    "park,</w>": 1332,
    "park.</w>": 1333,
    "park</w>": 1334,
    "pas": 1335,
    "pati": 1336,
    "pe": 1337,
    "pe.</w>": 1338,
    "pe</w>": 1339,
    "peac": 1340,
    "ped</w>": 1341,
    "pen": 1342,
    "pend": 1343,
    "peop": 1344,
    "people</w>": 1345,
    "per": 1346,
    "perfec": 1347,
    "perfect</w>": 1348,
    "pes</w>": 1349,
    "pet</w>": 1350,
    "ph": 1351,
    "pi": 1352,
    "pic": 1353,
    "pick</w>": 1354,
    "picked</w>": 1355,
    "picture": 1356,
    "pictures</w>": 1357,
    "piec": 1358,
    "pil": 1359,
    "ping</w>": 1360,
    "pink</w>": 1361,
    "pl": 1362,
    "pla": 1363,
    "plac": 1364,
    "place.</w>": 1365,
    "place</w>": 1366,
    "plan": 1367,
    "play": 1368,
    "play.</w>": 1369,
    "play</w>": 1370,
    "played</w>": 1371,
    "playing</w>": 1372,
    "ple</w>": 1373,
    "pleas": 1374,
    "pli": 1375,
    "po": 1376,
    "poin": 1377,
    "poli": 1378,
    "pon": 1379,
    "poo": 1380,
    "pow": 1381,
    "pp": 1382,
    "pped</w>": 1383,
    "pping</w>": 1384,
    "pr": 1385,
    "pre": 1386,
    "pres": 1387,
    "pret": 1388,
    "pretend": 1389,
    "pretend</w>": 1390,
    "prett": 1391,
    "pretty</w>": 1392,
    "pri": 1393,
    "prin": 1394,
    "prince": 1395,
    "princess</w>": 1396,
    "pro": 1397,
    "prom": 1398,
    "promised</w>": 1399,
    "prou": 1400,
    "proud.</w>": 1401,
    "proud</w>": 1402,
    "ps</w>": 1403,
    "pt</w>": 1404,
    "pu": 1405,
    "pulled</w>": 1406,
    "pupp": 1407,
    "puppy</w>": 1408,
    "pur": 1409,
    "purple</w>": 1410,
    "put</w>": 1411,
    "qu": 1412,
    "que": 1413,
    "quick": 1414,
    "quickly</w>": 1415,
    "quie": 1416,
    "r": 1417,
    "r</w>": 1418,
    "ra": 1419,
    "rabb": 1420,
    "rabbit</w>": 1421,
    "rac": 1422,
    "race</w>": 1423,
    "rain": 1424,
    "ran</w>": 1425,
    "re": 1426,
    "re</w>": 1427,
    "rea": 1428,
    "reached</w>": 1429,
    "read": 1430,
    "read</w>": 1431,
    "ready</w>": 1432,
    "reali": 1433,
    "realized</w>": 1434,
    "really</w>": 1435,
    "red</w>": 1436,
    "relie": 1437,
    "rememb": 1438,
    "remember</w>": 1439,
    "remembered</w>": 1440,
    "repli": 1441,
    "replied,</w>": 1442,
    "rest</w>": 1443,
    "ri": 1444,
    "rid": 1445,
    "ried</w>": 1446,
    "right</w>": 1447,
    "ro": 1448,
    "robo": 1449,
    "roc": 1450,
    "rolled</w>": 1451,
    "room.</w>": 1452,
    "room</w>": 1453,
    "rou": 1454,
    "row": 1455,
    "row</w>": 1456,
    "ru": 1457,
    "run": 1458,
    "run</w>": 1459,
    "running</w>": 1460,
    "runs</w>": 1461,
    "ry,</w>": 1462,
    "ry.</w>": 1463,
    "ry</w>": 1464,
    "s": 1465,
    "s!\"</w>": 1466,
    "s!</w>": 1467,
    "s,\"</w>": 1468,
    "s,</w>": 1469,
    "s.\"</w>": 1470,
    "s.</w>": 1471,
    "s</w>": 1472,
    "s?\"</w>": 1473,
    "sa": 1474,
    "sad,</w>": 1475,
    "sad.</w>": 1476,
    "sad</w>": 1477,
    "saf": 1478,
    "safe.</w>": 1479,
    "safe</w>": 1480,
    "said": 1481,
    "said,</w>": 1482,
    "said.</w>": 1483,
    "said</w>": 1484,
    "sail": 1485,
    "same</w>": 1486,
    "sand": 1487,
    "sat</w>": 1488,
    "saw</w>": 1489,
    "say": 1490,
    "say,</w>": 1491,
    "say</w>": 1492,
    "says,</w>": 1493,
    "says.</w>": 1494,
    "says</w>": 1495,
    "sc": 1496,
    "scar": 1497,
    "scared,</w>": 1498,
    "scared.</w>": 1499,
    "scared</w>": 1500,
    "schoo": 1501,
    "se": 1502,
    "se,</w>": 1503,
    "se.</w>": 1504,
    "se</w>": 1505,
    "sear": 1506,
    "secre": 1507,
    "secret</w>": 1508,
    "sed.</w>": 1509,
    "sed</w>": 1510,
    "see": 1511,
    "see</w>": 1512,
    "seem": 1513,
    "seemed</w>": 1514,
    "seen</w>": 1515,
    "sees</w>": 1516,
    "sel": 1517,
    "ser": 1518,
    "ses</w>": 1519,
    "set</w>": 1520,
    "sh": 1521,
    "sh.</w>": 1522,
    "sh</w>": 1523,
    "sha": 1524,
    "shar": 1525,
    "share</w>": 1526,
    "shared</w>": 1527,
    "she": 1528,
    "she</w>": 1529,
    "shed</w>": 1530,
    "shel": 1531,
    "shi": 1532,
    "shin": 1533,
    "shiny</w>": 1534,
    "sho": 1535,
    "shoes</w>": 1536,
    "shoo": 1537,
    "shou": 1538,
    "should</w>": 1539,
    "shout": 1540,
    "show": 1541,
    "show</w>": 1542,
    "showed</w>": 1543,
    "si": 1544,
    "sic": 1545,
    "sid": 1546,
    "side,</w>": 1547,
    "side.</w>": 1548,
    "side</w>": 1549,
    "sie</w>": 1550,
    "sig": 1551,
    "sign</w>": 1552,
    "sil": 1553,
    "sing": 1554,
    "sing</w>": 1555,
    "sit</w>": 1556,
    "sk": 1557,
    "ski": 1558,
    "sky.</w>": 1559,
    "sky</w>": 1560,
    "slee": 1561,
    "sleep": 1562,
    "sli": 1563,
    "slide</w>": 1564,
    "slow": 1565,
    "slowly</w>": 1566,
    "sm": 1567,
    "smal": 1568,
    "small</w>": 1569,
    "smar": 1570,
    "smel": 1571,
    "smil": 1572,
    "smile.</w>": 1573,
    "smile</w>": 1574,
    "smiled,</w>": 1575,
    "smiled.</w>": 1576,
    "smiled</w>": 1577,
    "smiles</w>": 1578,
    "sn": 1579,
    "sn't</w>": 1580,
    "so": 1581,
    "so</w>": 1582,
    "sof": 1583,
    "soft</w>": 1584,
    "sol": 1585,
    "som": 1586,
    "some": 1587,
    "some</w>": 1588,
    "someone</w>": 1589,
    "something</w>": 1590,
    "son": 1591,
    "soon</w>": 1592,
    "sor": 1593,
    "sorry,</w>": 1594,
    "sorry.</w>": 1595,
    "sorry</w>": 1596,
    "sou": 1597,
    "soun": 1598,
    "sp": 1599,
    "spar": 1600,
    "spark": 1601,
    "spec": 1602,
    "speci": 1603,
    "special.</w>": 1604,
    "special</w>": 1605,
    "spid": 1606,
    "spla": 1607,
    "spo": 1608,
    "squ": 1609,
    "squirre": 1610,
    "squirrel</w>": 1611,
    "ss": 1612,
    "ss.</w>": 1613,
    "ss</w>": 1614,
    "st": 1615,
    "st,</w>": 1616,
    "st.</w>": 1617,
    "st</w>": 1618,
    "sta": 1619,
    "star": 1620,
    "started</w>": 1621,
    "stay</w>": 1622,
    "stayed</w>": 1623,
    "ste": 1624,
    "sted</w>": 1625,
    "stepped</w>": 1626,
    "ster": 1627,
    "ster.</w>": 1628,
    "ster</w>": 1629,
    "stic": 1630,
    "stick</w>": 1631,
    "still</w>": 1632,
    "sting</w>": 1633,
    "sto": 1634,
    "stop": 1635,
    "stop</w>": 1636,
    "stopped</w>": 1637,
    "stor": 1638,
    "store</w>": 1639,
    "story</w>": 1640,
    "str": 1641,
    "stra": 1642,
    "strang": 1643,
    "strange</w>": 1644,
    "stre": 1645,
    "stron": 1646,
    "strong.</w>": 1647,
    "strong</w>": 1648,
    "stu": 1649,
    "su": 1650,
    "such</w>": 1651,
    "sudden": 1652,
    "sun": 1653,
    "sun</w>": 1654,
    "sunny</w>": 1655,
    "sur": 1656,
    "sure</w>": 1657,
    "surpri": 1658,
    "surprise</w>": 1659,
    "surprised</w>": 1660,
    "sw": 1661,
    "swa": 1662,
    "swee": 1663,
    "sweet</w>": 1664,
    "swim": 1665,
    "sy</w>": 1666,
    "t": 1667,
    "t!</w>": 1668,
    "t's</w>": 1669,
    "t,</w>": 1670,
    "t.</w>": 1671,
    "t</w>": 1672,
    "ta": 1673,
    "table.</w>": 1674,
    "table</w>": 1675,
    "take</w>": 1676,
    "takes</w>": 1677,
    "tal": 1678,
    "talk</w>": 1679,
    "tall</w>": 1680,
    "tast": 1681,
    "te": 1682,
    "te.</w>": 1683,
    "te</w>": 1684,
    "teac": 1685,
    "teacher</w>": 1686,
    "ted.</w>": 1687,
    "ted</w>": 1688,
    "teddy</w>": 1689,
    "tel": 1690,
    "tell</w>": 1691,
    "ter": 1692,
    "ter.</w>": 1693,
    "ter</w>": 1694,
    "th": 1695,
    "th.</w>": 1696,
    "th</w>": 1697,
    "than": 1698,
    "than</w>": 1699,
    "thank</w>": 1700,
    "thanked</w>": 1701,
    "that": 1702,
    "that</w>": 1703,
    "the": 1704,
    "the</w>": 1705,
    "their</w>": 1706,
    "them": 1707,
    "them.</w>": 1708,
    "them</w>": 1709,
    "then,</w>": 1710,
    "then</w>": 1711,
    "ther": 1712,
    "ther,</w>": 1713,
    "ther.</w>": 1714,
    "ther</w>": 1715,
    "there.</w>": 1716,
    "there</w>": 1717,
    "they</w>": 1718,
    "thin": 1719,
    "thing": 1720,
    "thing.</w>": 1721,
    "thing</w>": 1722,
    "things.</w>": 1723,
    "things</w>": 1724,
    "think</w>": 1725,
    "thinks</w>": 1726,
    "this</w>": 1727,
    "thou": 1728,
    "thought</w>": 1729,
    "thre": 1730,
    "three</w>": 1731,
    "threw</w>": 1732,
    "throu": 1733,
    "through</w>": 1734,
    "ti": 1735,
    "tic": 1736,
    "ticed</w>": 1737,
    "til</w>": 1738,
    "tim": 1739,
    "time,</w>": 1740,
    "time.</w>": 1741,
    "time</w>": 1742,
    "times</w>": 1743,
    "tin": 1744,
    "ting</w>": 1745,
    "tiny</w>": 1746,
    "tire": 1747,
    "tired</w>": 1748,
    "to": 1749,
    "to</w>": 1750,
    "toge": 1751,
    "together": 1752,
    "together.</w>": 1753,
    "together</w>": 1754,
    "told</w>": 1755,
    "too": 1756,
    "too,</w>": 1757,
    "too.</w>": 1758,
    "too</w>": 1759,
    "took</w>": 1760,
    "top</w>": 1761,
    "tor": 1762,
    "tou": 1763,
    "touch</w>": 1764,
    "tow": 1765,
    "towar": 1766,
    "towards</w>": 1767,
    "toy": 1768,
    "toy.</w>": 1769,
    "toy</w>": 1770,
    "toys.</w>": 1771,
    "toys</w>": 1772,
    "tr": 1773,
    "tra": 1774,
    "tre": 1775,
    "treas": 1776,
    "tree.</w>": 1777,
    "tree</w>": 1778,
    "trees</w>": 1779,
    "tri": 1780,
    "tried</w>": 1781,
    "tru": 1782,
    "truc": 1783,
    "truck</w>": 1784,
    "try</w>": 1785,
    "trying</w>": 1786,
    "ts.</w>": 1787,
    "ts</w>": 1788,
    "tt": 1789,
    "tter": 1790,
    "tter</w>": 1791,
    "tting</w>": 1792,
    "ttle</w>": 1793,
    "tun": 1794,
    "tur": 1795,
    "ture": 1796,
    "ture</w>": 1797,
    "turned</w>": 1798,
    "tw": 1799,
    "twi": 1800,
    "two</w>": 1801,
    "ty.</w>": 1802,
    "ty</w>": 1803,
    "t’s</w>": 1804,
    "u": 1805,
    "uc": 1806,
    "uck": 1807,
    "uck</w>": 1808,
    "ug": 1809,
    "ug</w>": 1810,
    "ugh": 1811,
    "ught</w>": 1812,
    "um": 1813,
    "um</w>": 1814,
    "umb": 1815,
    "ummy</w>": 1816,
    "un": 1817,
    "under": 1818,
    "under</w>": 1819,
    "underst": 1820,
    "until</w>": 1821,
    "up": 1822,
    "up,</w>": 1823,
    "up.</w>": 1824,
    "up</w>": 1825,
    "upon</w>": 1826,
    "ur": 1827,
    "ure": 1828,
    "ure</w>": 1829,
    "us</w>": 1830,
    "use</w>": 1831,
    "used</w>": 1832,
    "ut</w>": 1833,
    "uti": 1834,
    "v": 1835,
    "ve": 1836,
    "ve,</w>": 1837,
    "ve.</w>": 1838,
    "ve</w>": 1839,
    "ved</w>": 1840,
    "ven</w>": 1841,
    "vent": 1842,
    "ventu": 1843,
    "ver": 1844,
    "ver.</w>": 1845,
    "ver</w>": 1846,
    "very": 1847,
    "very</w>": 1848,
    "ves.</w>": 1849,
    "ves</w>": 1850,
    "ving</w>": 1851,
    "vis": 1852,
    "visit</w>": 1853,
    "vo": 1854,
    "voice</w>": 1855,
    "w": 1856,
    "w.</w>": 1857,
    "w</w>": 1858,
    "wa": 1859,
    "wait": 1860,
    "wait</w>": 1861,
    "waited</w>": 1862,
    "wal": 1863,
    "walk</w>": 1864,
    "walked</w>": 1865,
    "walking</w>": 1866,
    "wan": 1867,
    "want</w>": 1868,
    "wanted</w>": 1869,
    "wants</w>": 1870,
    "war": 1871,
    "warm</w>": 1872,
    "was.</w>": 1873,
    "was</w>": 1874,
    "wasn't</w>": 1875,
    "wat": 1876,
    "watch</w>": 1877,
    "watched</w>": 1878,
    "water.</w>": 1879,
    "water</w>": 1880,
    "waved</w>": 1881,
    "way</w>": 1882,
    "ways</w>": 1883,
    "we": 1884,
    "we</w>": 1885,
    "wea": 1886,
    "wear</w>": 1887,
    "wee": 1888,
    "wel": 1889,
    "welcom": 1890,
    "went</w>": 1891,
    "were</w>": 1892,
    "wh": 1893,
    "what</w>": 1894,
    "when</w>": 1895,
    "wher": 1896,
    "where</w>": 1897,
    "whi": 1898,
    "whil": 1899,
    "while,</w>": 1900,
    "while</w>": 1901,
    "white</w>": 1902,
    "who</w>": 1903,
    "why</w>": 1904,
    "wi": 1905,
    "wil": 1906,
    "will</w>": 1907,
    "win": 1908,
    "wind</w>": 1909,
    "window": 1910,
    "wished</w>": 1911,
    "with": 1912,
    "with.</w>": 1913,
    "with</w>": 1914,
    "wo": 1915,
    "woke</w>": 1916,
    "won": 1917,
    "wonder": 1918,
    "wondered</w>": 1919,
    "wonderful</w>": 1920,
    "woo": 1921,
    "wor": 1922,
    "work.</w>": 1923,
    "work</w>": 1924,
    "worked</w>": 1925,
    "world.</w>": 1926,
    "world</w>": 1927,
    "worry,</w>": 1928,
    "would</w>": 1929,
    "wr": 1930,
    "wron": 1931,
    "x": 1932,
    "x.</w>": 1933,
    "x</w>": 1934,
    "y": 1935,
    "y!\"</w>": 1936,
    "y!</w>": 1937,
    "y's</w>": 1938,
    "y,\"</w>": 1939,
    "y,</w>": 1940,
    "y.\"</w>": 1941,
    "y.</w>": 1942,
    "y</w>": 1943,
    "y?\"</w>": 1944,
    "yard.</w>": 1945,
    "ybe</w>": 1946,
    "years</w>": 1947,
    "yed</w>": 1948,
    "yel": 1949,
    "yellow</w>": 1950,
    "ying</w>": 1951,
    "you": 1952,
    "you,</w>": 1953,
    "you.\"</w>": 1954,
    "you.</w>": 1955,
    "you</w>": 1956,
    "youn": 1957,
    "young</w>": 1958,
    "your</w>": 1959,
    "ys</w>": 1960,
    "yummy</w>": 1961,
    "z": 1962,
    "ze</w>": 1963,
    "zed</w>": 1964,
    "zy</w>": 1965,
    "zz": 1966,
    "–": 1967,
    "—": 1968,
    "‘": 1969,
    "’": 1970,
    "’s</w>": 1971,
    "’t</w>": 1972,
    "“": 1973,
    "”": 1974,
    "”</w>": 1975
  }
}